{
  "version": "1.0",
  "truncation": null,
  "padding": null,
  "added_tokens": [
    {
      "id": 0,
      "content": "<pad>",
      "single_word": false,
      "lstrip": false,
      "rstrip": false,
      "normalized": false,
      "special": true
    },
    {
      "id": 1,
      "content": "<unk>",
      "single_word": false,
      "lstrip": false,
      "rstrip": false,
      "normalized": false,
      "special": true
    },
    {
      "id": 2,
      "content": "<bos>",
      "single_word": false,
      "lstrip": false,
      "rstrip": false,
      "normalized": false,
      "special": true
    },
    {
      "id": 3,
      "content": "<eos>",
      "single_word": false,
      "lstrip": false,
      "rstrip": false,
      "normalized": false,
      "special": true
    },
    {
      "id": 4,
      "content": "<|im_start|>",
      "single_word": false,
      "lstrip": false,
      "rstrip": false,
      "normalized": false,
      "special": true
    },
    {
      "id": 5,
      "content": "<|im_end|>",
      "single_word": false,
      "lstrip": false,
      "rstrip": false,
      "normalized": false,
      "special": true
    }
  ],
  "normalizer": null,
  "pre_tokenizer": {
    "type": "ByteLevel",
    "add_prefix_space": false,
    "trim_offsets": true,
    "use_regex": true
  },
  "post_processor": null,
  "decoder": null,
  "model": {
    "type": "BPE",
    "dropout": null,
    "unk_token": null,
    "continuing_subword_prefix": null,
    "end_of_word_suffix": null,
    "fuse_unk": false,
    "byte_fallback": false,
    "ignore_merges": false,
    "vocab": {
      "<pad>": 0,
      "<unk>": 1,
      "<bos>": 2,
      "<eos>": 3,
      "<|im_start|>": 4,
      "<|im_end|>": 5,
      "!": 6,
      "\"": 7,
      "#": 8,
      "$": 9,
      "%": 10,
      "&": 11,
      "'": 12,
      "(": 13,
      ")": 14,
      "*": 15,
      "+": 16,
      ",": 17,
      "-": 18,
      ".": 19,
      "/": 20,
      "0": 21,
      "1": 22,
      "2": 23,
      "3": 24,
      "4": 25,
      "5": 26,
      "6": 27,
      "7": 28,
      "8": 29,
      "9": 30,
      ":": 31,
      ";": 32,
      "<": 33,
      "=": 34,
      ">": 35,
      "?": 36,
      "@": 37,
      "A": 38,
      "B": 39,
      "C": 40,
      "D": 41,
      "E": 42,
      "F": 43,
      "G": 44,
      "H": 45,
      "I": 46,
      "J": 47,
      "K": 48,
      "L": 49,
      "M": 50,
      "N": 51,
      "O": 52,
      "P": 53,
      "Q": 54,
      "R": 55,
      "S": 56,
      "T": 57,
      "U": 58,
      "V": 59,
      "W": 60,
      "X": 61,
      "Y": 62,
      "Z": 63,
      "[": 64,
      "\\": 65,
      "]": 66,
      "^": 67,
      "_": 68,
      "`": 69,
      "a": 70,
      "b": 71,
      "c": 72,
      "d": 73,
      "e": 74,
      "f": 75,
      "g": 76,
      "h": 77,
      "i": 78,
      "j": 79,
      "k": 80,
      "l": 81,
      "m": 82,
      "n": 83,
      "o": 84,
      "p": 85,
      "q": 86,
      "r": 87,
      "s": 88,
      "t": 89,
      "u": 90,
      "v": 91,
      "w": 92,
      "x": 93,
      "y": 94,
      "z": 95,
      "|": 96,
      "}": 97,
      "~": 98,
      "¡": 99,
      "¢": 100,
      "£": 101,
      "¤": 102,
      "¥": 103,
      "¦": 104,
      "§": 105,
      "¨": 106,
      "©": 107,
      "ª": 108,
      "«": 109,
      "¬": 110,
      "®": 111,
      "¯": 112,
      "°": 113,
      "±": 114,
      "²": 115,
      "³": 116,
      "´": 117,
      "µ": 118,
      "¶": 119,
      "·": 120,
      "¸": 121,
      "¹": 122,
      "º": 123,
      "»": 124,
      "¼": 125,
      "½": 126,
      "¾": 127,
      "¿": 128,
      "Â": 129,
      "Ã": 130,
      "Ä": 131,
      "Å": 132,
      "Æ": 133,
      "Ç": 134,
      "È": 135,
      "É": 136,
      "Ê": 137,
      "Ë": 138,
      "Ì": 139,
      "Í": 140,
      "Î": 141,
      "Ï": 142,
      "Ð": 143,
      "Ñ": 144,
      "Ò": 145,
      "Ó": 146,
      "Ô": 147,
      "Õ": 148,
      "Ö": 149,
      "×": 150,
      "Ø": 151,
      "Ù": 152,
      "Ú": 153,
      "Û": 154,
      "Ü": 155,
      "à": 156,
      "á": 157,
      "â": 158,
      "ã": 159,
      "ä": 160,
      "å": 161,
      "æ": 162,
      "ç": 163,
      "è": 164,
      "é": 165,
      "ê": 166,
      "ë": 167,
      "ì": 168,
      "í": 169,
      "ï": 170,
      "ð": 171,
      "Ċ": 172,
      "Ġ": 173,
      "Ģ": 174,
      "ģ": 175,
      "Ĥ": 176,
      "ĥ": 177,
      "Ħ": 178,
      "ħ": 179,
      "Ĩ": 180,
      "ĩ": 181,
      "Ī": 182,
      "ī": 183,
      "Ĭ": 184,
      "ĭ": 185,
      "Į": 186,
      "į": 187,
      "İ": 188,
      "ı": 189,
      "Ĳ": 190,
      "ĳ": 191,
      "Ĵ": 192,
      "ĵ": 193,
      "Ķ": 194,
      "ķ": 195,
      "ĸ": 196,
      "Ĺ": 197,
      "ĺ": 198,
      "Ļ": 199,
      "ļ": 200,
      "Ľ": 201,
      "ľ": 202,
      "Ŀ": 203,
      "ŀ": 204,
      "Ł": 205,
      "ł": 206,
      "Ń": 207,
      "Ġt": 208,
      "Ġa": 209,
      "he": 210,
      "in": 211,
      "re": 212,
      "Ġthe": 213,
      "on": 214,
      "er": 215,
      "Ġo": 216,
      "at": 217,
      "Ġs": 218,
      "en": 219,
      "Ġc": 220,
      "es": 221,
      "Ġw": 222,
      "is": 223,
      "nd": 224,
      "or": 225,
      "it": 226,
      "Ġp": 227,
      "al": 228,
      "ed": 229,
      "Ġof": 230,
      "Ġb": 231,
      "Ġf": 232,
      "an": 233,
      "Ġin": 234,
      "ar": 235,
      "ing": 236,
      "ou": 237,
      "Ġm": 238,
      "ic": 239,
      "Ġand": 240,
      "Ġto": 241,
      "ion": 242,
      "Ġd": 243,
      "ro": 244,
      "le": 245,
      "as": 246,
      "Ġh": 247,
      "ent": 248,
      "Ġth": 249,
      "ct": 250,
      "il": 251,
      "Ġe": 252,
      "Ġre": 253,
      "om": 254,
      "Ġn": 255,
      "ve": 256,
      "st": 257,
      "Ġl": 258,
      "ly": 259,
      "Ġbe": 260,
      "Ġis": 261,
      "ol": 262,
      "ĠT": 263,
      "se": 264,
      "ation": 265,
      "Ġg": 266,
      "id": 267,
      "im": 268,
      "ce": 269,
      "ut": 270,
      "et": 271,
      "ur": 272,
      "ĠA": 273,
      "ot": 274,
      "ch": 275,
      "ra": 276,
      "ĠS": 277,
      "ow": 278,
      "Ġfor": 279,
      "ig": 280,
      "Ġon": 281,
      "ĠC": 282,
      "Ġthat": 283,
      "Ġu": 284,
      "ver": 285,
      "âĢ": 286,
      "ĠI": 287,
      "Ġst": 288,
      "ir": 289,
      "am": 290,
      "ay": 291,
      "ul": 292,
      "el": 293,
      "Ġas": 294,
      "ith": 295,
      "ad": 296,
      "her": 297,
      "Ġy": 298,
      "Ġpro": 299,
      "Ġcon": 300,
      "Ġan": 301,
      "Ġare": 302,
      "Ġwith": 303,
      "Ġor": 304,
      "Ġ(": 305,
      "Ġ1": 306,
      "ĠM": 307,
      "Ġwh": 308,
      "ter": 309,
      "if": 310,
      "ĠP": 311,
      "od": 312,
      "Ġit": 313,
      "Ġal": 314,
      "ĠThe": 315,
      "ist": 316,
      "ment": 317,
      "th": 318,
      "ge": 319,
      "op": 320,
      "ate": 321,
      "Ġde": 322,
      "ies": 323,
      "ers": 324,
      "ĠB": 325,
      "Ġhe": 326,
      "ab": 327,
      "ill": 328,
      "Ġsu": 329,
      "Ġyou": 330,
      "res": 331,
      "ĠH": 332,
      "Ġex": 333,
      "us": 334,
      "Ġby": 335,
      "ess": 336,
      "est": 337,
      "ere": 338,
      "ect": 339,
      "rom": 340,
      "ld": 341,
      "ore": 342,
      "os": 343,
      "Ġcom": 344,
      "ac": 345,
      "um": 346,
      "Ġat": 347,
      "ity": 348,
      "ri": 349,
      "ĠW": 350,
      "and": 351,
      "em": 352,
      "Ġv": 353,
      "ĠD": 354,
      "qu": 355,
      "ain": 356,
      "ive": 357,
      "ant": 358,
      "ĠR": 359,
      "Ġwas": 360,
      "nt": 361,
      "ke": 362,
      "igh": 363,
      "Ġfrom": 364,
      "pp": 365,
      "ĠE": 366,
      "Ġha": 367,
      "ĠF": 368,
      "ud": 369,
      "Ġse": 370,
      "Ġch": 371,
      "Ġ2": 372,
      "ĠN": 373,
      "oc": 374,
      "iv": 375,
      "ort": 376,
      "Ġne": 377,
      "Ġr": 378,
      "Ġnot": 379,
      "art": 380,
      "ure": 381,
      "ĠG": 382,
      "ical": 383,
      "Ġcan": 384,
      "un": 385,
      "00": 386,
      "Ġhave": 387,
      "ĠL": 388,
      "all": 389,
      "Ġsp": 390,
      "Ġle": 391,
      "ial": 392,
      "og": 393,
      "Ġsh": 394,
      "'s": 395,
      "pt": 396,
      "ich": 397,
      "ight": 398,
      "Ġen": 399,
      "ould": 400,
      "ther": 401,
      "Ġthis": 402,
      "rou": 403,
      "Ġab": 404,
      "The": 405,
      "ost": 406,
      "our": 407,
      "âĢĻ": 408,
      "gh": 409,
      "ated": 410,
      "ions": 411,
      "ine": 412,
      "ome": 413,
      "Ġwe": 414,
      "du": 415,
      "ag": 416,
      "Ġwor": 417,
      "ĠO": 418,
      "ear": 419,
      "ard": 420,
      "out": 421,
      "per": 422,
      "ec": 423,
      "ĠU": 424,
      "Ġus": 425,
      "ĠJ": 426,
      "ell": 427,
      "Ġpl": 428,
      "Ġim": 429,
      "ff": 430,
      "Ġwhich": 431,
      "ast": 432,
      "Ġ\"": 433,
      "age": 434,
      "Ġint": 435,
      "act": 436,
      "ans": 437,
      "ous": 438,
      "pl": 439,
      "ĠâĢ": 440,
      "ew": 441,
      "ĠIn": 442,
      "ust": 443,
      "ood": 444,
      "Ġtheir": 445,
      "Ġwhe": 446,
      "ak": 447,
      "ib": 448,
      "ide": 449,
      "Ġad": 450,
      "Ġk": 451,
      "Ġinc": 452,
      "iz": 453,
      "are": 454,
      "ia": 455,
      "Ġcont": 456,
      "cc": 457,
      "Ġall": 458,
      "ary": 459,
      "orm": 460,
      "ap": 461,
      "vel": 462,
      "ult": 463,
      "Ġdis": 464,
      "ong": 465,
      "Ġthey": 466,
      "ru": 467,
      "ations": 468,
      "Ġmore": 469,
      "end": 470,
      "Ġres": 471,
      "Ġhas": 472,
      "Ġwill": 473,
      "ip": 474,
      "Ġ19": 475,
      "Ġdo": 476,
      "Ġcomp": 477,
      "ire": 478,
      "Ġother": 479,
      "able": 480,
      "ater": 481,
      "Ġwere": 482,
      "Ġcl": 483,
      "ks": 484,
      "ild": 485,
      "so": 486,
      "Ġbut": 487,
      "ence": 488,
      "ally": 489,
      "ind": 490,
      "ry": 491,
      "Ġman": 492,
      "Ġper": 493,
      "Ġone": 494,
      "ĠTh": 495,
      "Ġyour": 496,
      "ase": 497,
      "ep": 498,
      "ress": 499,
      "ĠSt": 500,
      "Ġme": 501,
      "ance": 502,
      "ach": 503,
      "ber": 504,
      "ose": 505,
      "reat": 506,
      "ace": 507,
      "Ġhis": 508,
      "av": 509,
      "ass": 510,
      "ction": 511,
      "ign": 512,
      "ice": 513,
      "Ġpre": 514,
      "ame": 515,
      "au": 516,
      "ory": 517,
      "Ġar": 518,
      "ents": 519,
      "ord": 520,
      "Ġun": 521,
      "ake": 522,
      "Ġapp": 523,
      "Ġpart": 524,
      "Ġso": 525,
      "Ġalso": 526,
      "Ġimp": 527,
      "Ġev": 528,
      "Ġte": 529,
      "ition": 530,
      "Ġout": 531,
      "ub": 532,
      "ount": 533,
      "mer": 534,
      "Ġwho": 535,
      ").": 536,
      "Ġsc": 537,
      "Ġinf": 538,
      "Ġj": 539,
      "one": 540,
      "ens": 541,
      "Ġabout": 542,
      "ound": 543,
      "ish": 544,
      "Ġtim": 545,
      "very": 546,
      "ree": 547,
      "ok": 548,
      "âĢĿ": 549,
      "Ġmay": 550,
      "Ġstud": 551,
      "ors": 552,
      "Ġsy": 553,
      "ite": 554,
      "ĠCh": 555,
      "Ġthan": 556,
      "ang": 557,
      "olog": 558,
      "ric": 559,
      "ces": 560,
      "ates": 561,
      "ack": 562,
      "low": 563,
      "Ġup": 564,
      "ĠK": 565,
      "Ġbeen": 566,
      "Ġpe": 567,
      "Ġyear": 568,
      "ian": 569,
      "ie": 570,
      "Ġcomm": 571,
      "now": 572,
      "ail": 573,
      "Ġsome": 574,
      "Ġbec": 575,
      "ue": 576,
      "Ġrec": 577,
      "ile": 578,
      "Ġthem": 579,
      "erv": 580,
      "Ġhad": 581,
      "ike": 582,
      "Ġqu": 583,
      "ĠV": 584,
      "ays": 585,
      "ph": 586,
      "vers": 587,
      "Ġag": 588,
      "Ġthere": 589,
      "Ġits": 590,
      "ings": 591,
      "ĠIt": 592,
      "ough": 593,
      "lud": 594,
      "nder": 595,
      "Ġinto": 596,
      "iff": 597,
      "ople": 598,
      "Ġwhen": 599,
      "Ġsa": 600,
      "Ġ3": 601,
      "ons": 602,
      "ĠâĢľ": 603,
      "tern": 604,
      "Ġro": 605,
      "ms": 606,
      "Ġover": 607,
      "Ġ-": 608,
      "ond": 609,
      "Ġra": 610,
      "Ġgo": 611,
      "Ġcol": 612,
      "Ġthese": 613,
      "ren": 614,
      "irst": 615,
      "Ġtw": 616,
      "lic": 617,
      "Ġgen": 618,
      "Ġwould": 619,
      "rough": 620,
      "ual": 621,
      "rit": 622,
      "red": 623,
      "lect": 624,
      "Ġcons": 625,
      "ll": 626,
      "te": 627,
      "Ġtime": 628,
      "ific": 629,
      "ove": 630,
      "Ġtra": 631,
      "ause": 632,
      "Ġbl": 633,
      "ments": 634,
      "ĠUn": 635,
      "ject": 636,
      "int": 637,
      "Ġuse": 638,
      "Ġdes": 639,
      "Ġmost": 640,
      "ational": 641,
      "Ġ200": 642,
      "Ġrep": 643,
      "Ġnew": 644,
      "ious": 645,
      "velop": 646,
      "ys": 647,
      "Ġwork": 648,
      "hed": 649,
      "we": 650,
      "Ġdiff": 651,
      "ient": 652,
      "ĠThis": 653,
      "Ġpeople": 654,
      "Ġsuch": 655,
      "Ġbet": 656,
      "Ġacc": 657,
      "stem": 658,
      "Ġrel": 659,
      "Ġhow": 660,
      "Ġno": 661,
      "Ġunder": 662,
      "Ġinclud": 663,
      "row": 664,
      "),": 665,
      "Ġact": 666,
      "Ġph": 667,
      "ook": 668,
      "Ġif": 669,
      "Ġspec": 670,
      "ĠY": 671,
      "les": 672,
      "ities": 673,
      "Ġknow": 674,
      "Ġany": 675,
      "Ġonly": 676,
      "alth": 677,
      "ath": 678,
      "ple": 679,
      "ced": 680,
      "Ġfirst": 681,
      "Ġlike": 682,
      "Ġoff": 683,
      "Ġ20": 684,
      "Ġchild": 685,
      "Ġtr": 686,
      "ov": 687,
      "Ġeff": 688,
      "Ġtwo": 689,
      "ning": 690,
      "rib": 691,
      "ob": 692,
      "Ġprodu": 693,
      "ise": 694,
      "Ġdevelop": 695,
      "ative": 696,
      "ating": 697,
      "Ġprov": 698,
      "Ġused": 699,
      "ool": 700,
      "yp": 701,
      "Ġour": 702,
      "cess": 703,
      "ark": 704,
      "Ġind": 705,
      "erm": 706,
      "Ġsur": 707,
      "Ġwhat": 708,
      "ular": 709,
      "Ġneed": 710,
      "oss": 711,
      "rop": 712,
      "ĠHe": 713,
      "iss": 714,
      "ts": 715,
      "ied": 716,
      "Ġmany": 717,
      "fter": 718,
      "Ġthrough": 719,
      "uring": 720,
      "Ġam": 721,
      "als": 722,
      "ics": 723,
      "Ġpo": 724,
      "uc": 725,
      "Ġob": 726,
      "iet": 727,
      "Ġreg": 728,
      "Ġsystem": 729,
      "hen": 730,
      "ution": 731,
      "Ġfe": 732,
      "ne": 733,
      "ink": 734,
      "old": 735,
      "Ġexp": 736,
      "round": 737,
      "Ġpr": 738,
      "ble": 739,
      "meric": 740,
      "ram": 741,
      "Ġsub": 742,
      "ef": 743,
      "Ġac": 744,
      "Ġfl": 745,
      "land": 746,
      "arch": 747,
      "Ġadd": 748,
      "oth": 749,
      "cy": 750,
      "Ġhel": 751,
      "Ġatt": 752,
      "hes": 753,
      "ited": 754,
      "ased": 755,
      "Ġ4": 756,
      "ower": 757,
      "ange": 758,
      "own": 759,
      "ten": 760,
      "Ġdec": 761,
      "Ġyears": 762,
      "ert": 763,
      "ures": 764,
      "Ġcould": 765,
      "Ġshould": 766,
      "ible": 767,
      "Ġass": 768,
      "Ġco": 769,
      "Ġdiffere": 770,
      "ween": 771,
      "Ġear": 772,
      "ility": 773,
      "Ġhelp": 774,
      "ng": 775,
      "vent": 776,
      "In": 777,
      "aw": 778,
      "ful": 779,
      "ĠAmeric": 780,
      "Ġrem": 781,
      "ural": 782,
      "Ġsupp": 783,
      "Ġ5": 784,
      "Ġpres": 785,
      "gan": 786,
      "..": 787,
      "sel": 788,
      "ists": 789,
      "ormation": 790,
      "Ġrese": 791,
      "Ġem": 792,
      "Ġform": 793,
      "Ġwell": 794,
      "Ġ18": 795,
      "ade": 796,
      "ife": 797,
      "Ġsaid": 798,
      "Ġwater": 799,
      "Ġbetween": 800,
      "Ġsm": 801,
      "Ġhigh": 802,
      "xt": 803,
      "Ġinst": 804,
      "ered": 805,
      "uch": 806,
      "ily": 807,
      "fore": 808,
      "ract": 809,
      "ism": 810,
      "eth": 811,
      "Ġwhere": 812,
      "ont": 813,
      "ines": 814,
      "ident": 815,
      "ivers": 816,
      "Ġinter": 817,
      "ĠAs": 818,
      "ick": 819,
      "ology": 820,
      "its": 821,
      "Ġfound": 822,
      "Ġcall": 823,
      "Ġmed": 824,
      "ever": 825,
      "wn": 826,
      "Ġcent": 827,
      "Ġmod": 828,
      "Ġnum": 829,
      "Ġpers": 830,
      "ins": 831,
      ".\"": 832,
      "ants": 833,
      "Ġbu": 834,
      "Ġgener": 835,
      "ually": 836,
      "Ġtrans": 837,
      "ict": 838,
      "ft": 839,
      "erg": 840,
      "Ġmake": 841,
      "itt": 842,
      "Ġlar": 843,
      "chool": 844,
      "iew": 845,
      "Ġpub": 846,
      "ience": 847,
      "ature": 848,
      "Ġlong": 849,
      "Ġthen": 850,
      "Ġafter": 851,
      "Ġinv": 852,
      "Ġprog": 853,
      "Ġvery": 854,
      "Ġref": 855,
      "Ġpol": 856,
      "Ġed": 857,
      "Ġcount": 858,
      "Ġdisc": 859,
      "cent": 860,
      "Ġsim": 861,
      "urn": 862,
      "other": 863,
      "Ġher": 864,
      "ollow": 865,
      "the": 866,
      "ĠPro": 867,
      "Ġdet": 868,
      "Ġbecause": 869,
      "ata": 870,
      "Ġhealth": 871,
      "Ġeven": 872,
      "Ġget": 873,
      "cept": 874,
      "Ġ201": 875,
      "Ġworld": 876,
      "Ġgra": 877,
      "chn": 878,
      "ved": 879,
      "roup": 880,
      "Ġinformation": 881,
      "ĠAl": 882,
      "Ġincre": 883,
      "Ġexam": 884,
      "Ġdist": 885,
      "Th": 886,
      "omm": 887,
      "Ġext": 888,
      "Ġthose": 889,
      "oy": 890,
      "get": 891,
      "Ġjust": 892,
      "Ġimport": 893,
      "Ġcar": 894,
      "Ġloc": 895,
      "Ġhum": 896,
      "Ġsee": 897,
      "Ġeffect": 898,
      "ically": 899,
      "Ġresp": 900,
      "Ġeach": 901,
      "ds": 902,
      "Ġca": 903,
      "cer": 904,
      "ck": 905,
      "Ġsame": 906,
      "Ġsec": 907,
      "Ġtyp": 908,
      "Ġpat": 909,
      "ather": 910,
      "ues": 911,
      "iron": 912,
      "Ġdifferent": 913,
      "Ġresult": 914,
      "||": 915,
      "Ġvar": 916,
      "ness": 917,
      "Ġdef": 918,
      "ases": 919,
      "arm": 920,
      "Ġsign": 921,
      "vern": 922,
      "Ġent": 923,
      "Ġmon": 924,
      "ork": 925,
      "Ġway": 926,
      "Ġpartic": 927,
      "aking": 928,
      "ĠNew": 929,
      "led": 930,
      "ĠRe": 931,
      "ages": 932,
      "ale": 933,
      "ives": 934,
      "Ġke": 935,
      "Ġ6": 936,
      "Ġset": 937,
      "Ġbeing": 938,
      "ĠWh": 939,
      "Ġstudy": 940,
      "io": 941,
      "Ġfollow": 942,
      "Ġchildren": 943,
      "Ġduring": 944,
      "Ġlevel": 945,
      "Ġcor": 946,
      "Ġexper": 947,
      "Ġfam": 948,
      "iversity": 949,
      "Ġfact": 950,
      "Ġaut": 951,
      "ward": 952,
      "ĠAr": 953,
      "19": 954,
      "Ġprocess": 955,
      "Ġmuch": 956,
      "Ġrequ": 957,
      "ĠSp": 958,
      "ized": 959,
      "Ġdep": 960,
      "gg": 961,
      "ices": 962,
      "und": 963,
      "ros": 964,
      "ex": 965,
      "Ġhim": 966,
      "Ġshe": 967,
      "Ġgroup": 968,
      "Ġfood": 969,
      "Ġevery": 970,
      "Ġmade": 971,
      "ince": 972,
      "ody": 973,
      "Ġart": 974,
      "Ġav": 975,
      "ished": 976,
      "any": 977,
      "Ġright": 978,
      "Ġproble": 979,
      "Ġdi": 980,
      "Ġtest": 981,
      ",\"": 982,
      "ting": 983,
      "ruct": 984,
      "Ġcre": 985,
      "irect": 986,
      "read": 987,
      "Ġstate": 988,
      "Ġcommun": 989,
      "Ġperson": 990,
      "Ġboth": 991,
      "'t": 992,
      "ĠWe": 993,
      "Ġhist": 994,
      "Ġown": 995,
      "nce": 996,
      "Ġsmall": 997,
      "âĢĶ": 998,
      "Ġdoes": 999,
      "oh": 1000,
      "ĠAn": 1001,
      "ection": 1002,
      "ix": 1003,
      "Ġmy": 1004,
      "Ġfind": 1005,
      "000": 1006,
      "ergy": 1007,
      "Ġtreat": 1008,
      "ĠIf": 1009,
      "ran": 1010,
      "Ġlead": 1011,
      "ah": 1012,
      "Ġgrow": 1013,
      "Ġlife": 1014,
      "Ġshow": 1015,
      "Ġstr": 1016,
      "ined": 1017,
      "Ġbefore": 1018,
      "Ġocc": 1019,
      "ock": 1020,
      "ize": 1021,
      "sp": 1022,
      "ute": 1023,
      "Ġcur": 1024,
      "form": 1025,
      "iel": 1026,
      "ĠFor": 1027,
      "Ġtechn": 1028,
      "ving": 1029,
      "viron": 1030,
      "Ġgood": 1031,
      "ars": 1032,
      "Ġris": 1033,
      "ĠâĢĵ": 1034,
      "Ġserv": 1035,
      "Ġread": 1036,
      "Ġend": 1037,
      "Ġnow": 1038,
      "Ġche": 1039,
      "cl": 1040,
      "hip": 1041,
      "Ġpop": 1042,
      "Ġdata": 1043,
      "ĠThey": 1044,
      "Ġagain": 1045,
      "ially": 1046,
      "up": 1047,
      "ĠSc": 1048,
      "Ġimportant": 1049,
      "onom": 1050,
      "Ġthree": 1051,
      "Ġlear": 1052,
      "Ġnumber": 1053,
      "ton": 1054,
      "orn": 1055,
      "Ġdise": 1056,
      "Ġback": 1057,
      "omen": 1058,
      "Ġgl": 1059,
      "imate": 1060,
      "Ġmem": 1061,
      "Ġchar": 1062,
      "Ġmin": 1063,
      "ĠInd": 1064,
      "Ġschool": 1065,
      ".,": 1066,
      "Ġ10": 1067,
      "Ġexpl": 1068,
      "Ġcomple": 1069,
      "ty": 1070,
      "ury": 1071,
      "Ġcond": 1072,
      "ier": 1073,
      "Ġposs": 1074,
      "inal": 1075,
      "ency": 1076,
      "Ġbo": 1077,
      "Ġday": 1078,
      "ides": 1079,
      "Ġless": 1080,
      "Ġ7": 1081,
      "Ġsoc": 1082,
      "Ġoften": 1083,
      "ven": 1084,
      "Ġmust": 1085,
      "ters": 1086,
      "Ġelect": 1087,
      "vironment": 1088,
      "Ġcalled": 1089,
      "ral": 1090,
      "Ġest": 1091,
      "Ġval": 1092,
      "ivid": 1093,
      "Ġsol": 1094,
      "air": 1095,
      "ected": 1096,
      "rol": 1097,
      "ger": 1098,
      "Ġcell": 1099,
      "Ġstudents": 1100,
      "Ġresearch": 1101,
      "hers": 1102,
      "ax": 1103,
      "Ġreport": 1104,
      "Ġpower": 1105,
      "ves": 1106,
      "Ġsk": 1107,
      "Ġdid": 1108,
      "ee": 1109,
      "rent": 1110,
      "Ġtake": 1111,
      "Ġorgan": 1112,
      "ĠAmerican": 1113,
      "ality": 1114,
      "Ġbel": 1115,
      "ulation": 1116,
      "Ġusing": 1117,
      "ĠBut": 1118,
      "Ġser": 1119,
      "akes": 1120,
      "Ġdown": 1121,
      "ring": 1122,
      "Ġ8": 1123,
      "Ġhuman": 1124,
      "Ġmain": 1125,
      "ash": 1126,
      "Ġwhile": 1127,
      "Ġ199": 1128,
      "outh": 1129,
      "ains": 1130,
      "Ġdesign": 1131,
      "Ġlarge": 1132,
      "Ġprot": 1133,
      ".âĢĿ": 1134,
      "Ġgreat": 1135,
      "oms": 1136,
      "vernment": 1137,
      "iqu": 1138,
      "ands": 1139,
      "itions": 1140,
      "der": 1141,
      "Ġconf": 1142,
      "Ġcontin": 1143,
      "aj": 1144,
      "lear": 1145,
      "Ġcommon": 1146,
      "ium": 1147,
      "ull": 1148,
      "day": 1149,
      "Ġincluding": 1150,
      "inc": 1151,
      "Ġvis": 1152,
      "iety": 1153,
      "ave": 1154,
      "Ġclass": 1155,
      "ĠHow": 1156,
      "Ġequ": 1157,
      "ouse": 1158,
      "Ġret": 1159,
      "Ġ.": 1160,
      "Ġblood": 1161,
      "Ġpoint": 1162,
      "Ġpublic": 1163,
      "Ġconsid": 1164,
      "Ġsupport": 1165,
      "Ġec": 1166,
      "ĠUniversity": 1167,
      "This": 1168,
      "Ġ9": 1169,
      "Ġplan": 1170,
      "self": 1171,
      "ron": 1172,
      "osed": 1173,
      "com": 1174,
      "Ġredu": 1175,
      "de": 1176,
      "Ġaround": 1177,
      "Ġactiv": 1178,
      "Ġbody": 1179,
      "ared": 1180,
      "Ġins": 1181,
      "uss": 1182,
      "Ġfun": 1183,
      "atural": 1184,
      "Ġdirect": 1185,
      "raph": 1186,
      "ner": 1187,
      "iod": 1188,
      "ital": 1189,
      "ĠAnd": 1190,
      "Ġadv": 1191,
      "Ġmet": 1192,
      "stand": 1193,
      "Ġconst": 1194,
      "Ġcare": 1195,
      "ĠUnited": 1196,
      "way": 1197,
      "ĠIs": 1198,
      "Ġknown": 1199,
      "oci": 1200,
      "me": 1201,
      "Wh": 1202,
      "reen": 1203,
      "agn": 1204,
      "Ġstart": 1205,
      "rist": 1206,
      "oun": 1207,
      "Ġsl": 1208,
      "eral": 1209,
      "ption": 1210,
      "ĠDe": 1211,
      "orth": 1212,
      "acter": 1213,
      "Ġthough": 1214,
      "Ġcaus": 1215,
      "Ġexample": 1216,
      "Ġbuild": 1217,
      "man": 1218,
      "amp": 1219,
      "angu": 1220,
      "Ġpercent": 1221,
      "Ġmat": 1222,
      "Ġlook": 1223,
      "Ġsom": 1224,
      "Ġspecies": 1225,
      "Ġtem": 1226,
      "Ġmight": 1227,
      "ired": 1228,
      "ret": 1229,
      "ries": 1230,
      "ources": 1231,
      "ross": 1232,
      "Ġstill": 1233,
      "Ġplace": 1234,
      "bers": 1235,
      "iven": 1236,
      "ense": 1237,
      "Ġ[": 1238,
      "iving": 1239,
      "Ġop": 1240,
      "ĠPh": 1241,
      "Ġsays": 1242,
      "Ġcour": 1243,
      "Ġenergy": 1244,
      "Ġdisease": 1245,
      "Ġwithin": 1246,
      "Ġallow": 1247,
      "Ġwrit": 1248,
      "rain": 1249,
      "ĠCon": 1250,
      "gin": 1251,
      "ern": 1252,
      "Ġfew": 1253,
      "Ġphys": 1254,
      "Ġquest": 1255,
      "els": 1256,
      "Ġarea": 1257,
      "20": 1258,
      "Ġlight": 1259,
      "ĠThere": 1260,
      "ization": 1261,
      "Ġdesc": 1262,
      "ional": 1263,
      "Ġaff": 1264,
      "Ġappro": 1265,
      "att": 1266,
      "illion": 1267,
      "Ġpresent": 1268,
      "lish": 1269,
      "ids": 1270,
      "eng": 1271,
      "ording": 1272,
      "Ġanother": 1273,
      "Ġsym": 1274,
      "Ġgu": 1275,
      "Ġprogram": 1276,
      "lished": 1277,
      "ris": 1278,
      "Ġbeh": 1279,
      "of": 1280,
      "ained": 1281,
      "ĠRes": 1282,
      "Ġcap": 1283,
      "Ġdevelopment": 1284,
      "aterial": 1285,
      "ior": 1286,
      "ividual": 1287,
      "ological": 1288,
      "ĠStates": 1289,
      "ason": 1290,
      "ination": 1291,
      "Ġchang": 1292,
      "Ġeduc": 1293,
      "ĠEng": 1294,
      "Ġenvironment": 1295,
      "ified": 1296,
      "Ġele": 1297,
      "ug": 1298,
      "Ġve": 1299,
      "ission": 1300,
      "ertain": 1301,
      "Ġsecond": 1302,
      "Ġrisk": 1303,
      "Ġ'": 1304,
      "Ġscient": 1305,
      "Ġwithout": 1306,
      "Ġair": 1307,
      "Ġthink": 1308,
      "Ġdem": 1309,
      "hor": 1310,
      "10": 1311,
      "Ġinclude": 1312,
      "ted": 1313,
      "Ġide": 1314,
      "ailable": 1315,
      ",âĢĿ": 1316,
      "az": 1317,
      "sy": 1318,
      "Ġpass": 1319,
      "Ġmil": 1320,
      "Ġmeas": 1321,
      "iver": 1322,
      "view": 1323,
      "Ġanim": 1324,
      "ield": 1325,
      "ajor": 1326,
      "Ġsever": 1327,
      "less": 1328,
      "ime": 1329,
      "ĠThese": 1330,
      "Ġlaw": 1331,
      "Ġoccur": 1332,
      "ration": 1333,
      "Ġearly": 1334,
      "here": 1335,
      "line": 1336,
      "olution": 1337,
      "Ġchange": 1338,
      "Ġbelie": 1339,
      "Ġeas": 1340,
      "ently": 1341,
      "Ġ15": 1342,
      "arc": 1343,
      "arent": 1344,
      "ians": 1345,
      "Ġbre": 1346,
      "Ġoper": 1347,
      "Ġimm": 1348,
      "rodu": 1349,
      "Ġproject": 1350,
      "ĠâĢĶ": 1351,
      "Ġprof": 1352,
      "Ġstand": 1353,
      "Ġpract": 1354,
      "Ġant": 1355,
      "Ġproduct": 1356,
      "Ġiss": 1357,
      "ĠAt": 1358,
      "ision": 1359,
      "Ġnear": 1360,
      "Ġlow": 1361,
      "Ġlast": 1362,
      "ĠCol": 1363,
      "erest": 1364,
      "Ġindividual": 1365,
      "ĠPl": 1366,
      "Ġident": 1367,
      "Ġpur": 1368,
      "ĠAd": 1369,
      "ource": 1370,
      "Ġwant": 1371,
      "ccess": 1372,
      "ering": 1373,
      "ograph": 1374,
      "to": 1375,
      "ĠCent": 1376,
      "Ġplay": 1377,
      "ĠSe": 1378,
      "ats": 1379,
      "ential": 1380,
      "ĠYou": 1381,
      "Ġname": 1382,
      "12": 1383,
      "Ġseveral": 1384,
      "ien": 1385,
      "Ġgovernment": 1386,
      "Ġpress": 1387,
      "Ġwar": 1388,
      "Ġmaterial": 1389,
      "Ġhere": 1390,
      "Ġland": 1391,
      "Ġtre": 1392,
      "ĠEn": 1393,
      "alk": 1394,
      "ank": 1395,
      "osp": 1396,
      "ĠComm": 1397,
      "Ġbas": 1398,
      "idence": 1399,
      "bs": 1400,
      "ator": 1401,
      "ww": 1402,
      "Ġpos": 1403,
      "ittle": 1404,
      "Ġorig": 1405,
      "Ġperiod": 1406,
      "Ġlangu": 1407,
      "ably": 1408,
      "Ġpot": 1409,
      "ets": 1410,
      "Ġwomen": 1411,
      "Ġold": 1412,
      "ĠGod": 1413,
      "Ġhistory": 1414,
      "Ġmajor": 1415,
      "ĠCl": 1416,
      "Ġrest": 1417,
      "Ġcontrol": 1418,
      "Ġdon": 1419,
      "Ġavailable": 1420,
      "Ġunt": 1421,
      "ĠNational": 1422,
      "Ġcurrent": 1423,
      "atic": 1424,
      "ability": 1425,
      "eg": 1426,
      "par": 1427,
      "ĠChrist": 1428,
      "ned": 1429,
      "Ġ&": 1430,
      "Ġunderstand": 1431,
      "itive": 1432,
      "Ġagainst": 1433,
      "Ġfamily": 1434,
      "ote": 1435,
      "though": 1436,
      "It": 1437,
      "Ġfore": 1438,
      "cing": 1439,
      "Ġsay": 1440,
      "Ġpain": 1441,
      "Ġmove": 1442,
      "ental": 1443,
      "Ġnatural": 1444,
      "Ġareas": 1445,
      "use": 1446,
      "Ġfour": 1447,
      "Ġbecome": 1448,
      "Ġleg": 1449,
      "Ġprop": 1450,
      "Ġhome": 1451,
      "ining": 1452,
      "Ġheart": 1453,
      "ina": 1454,
      "Ġhand": 1455,
      "Ġbir": 1456,
      "Ġsit": 1457,
      "ived": 1458,
      "Ġ17": 1459,
      "Ġeng": 1460,
      "imes": 1461,
      "Ġmark": 1462,
      "min": 1463,
      "Ġproper": 1464,
      "Ġobject": 1465,
      "ided": 1466,
      "Ġter": 1467,
      "Ġsince": 1468,
      "itional": 1469,
      "ples": 1470,
      "Ġmar": 1471,
      "Ġes": 1472,
      "Ġmeth": 1473,
      "Ġimpro": 1474,
      "Ġtoo": 1475,
      "Ġvol": 1476,
      "Ġinterest": 1477,
      "Ġtreatment": 1478,
      "18": 1479,
      "Ġreal": 1480,
      "Ġhig": 1481,
      "...": 1482,
      "ards": 1483,
      "Ġcause": 1484,
      "Ġparticular": 1485,
      "eed": 1486,
      "Ġpossible": 1487,
      "ĠEx": 1488,
      "ik": 1489,
      "ify": 1490,
      "Ġ12": 1491,
      "Ġ0": 1492,
      "âĢľ": 1493,
      "Ġfollowing": 1494,
      "Ġlim": 1495,
      "Ġdev": 1496,
      "Ġindu": 1497,
      "Ġpar": 1498,
      "omp": 1499,
      "ead": 1500,
      "Ġcult": 1501,
      "Ġeconom": 1502,
      "ients": 1503,
      "ĠAll": 1504,
      "ames": 1505,
      "Ġpri": 1506,
      "ĠMed": 1507,
      "Ġ--": 1508,
      "ilar": 1509,
      "Ġhead": 1510,
      "Ġel": 1511,
      "Ġtimes": 1512,
      "Ġmeans": 1513,
      "Ġprevent": 1514,
      "Ġmen": 1515,
      "stit": 1516,
      "Ġview": 1517,
      "Ġgiven": 1518,
      "ĠSh": 1519,
      "iness": 1520,
      "urop": 1521,
      "Ġbest": 1522,
      "Ġmus": 1523,
      "ĠTo": 1524,
      "ĠQ": 1525,
      "Ġprovide": 1526,
      "ware": 1527,
      "Ġben": 1528,
      "Ġnon": 1529,
      "gen": 1530,
      "ĠWhen": 1531,
      "Ġrad": 1532,
      "rap": 1533,
      "Ġlittle": 1534,
      "oint": 1535,
      "Ġopp": 1536,
      "Ġfre": 1537,
      "Ġlocal": 1538,
      "oph": 1539,
      "Ġrece": 1540,
      "ogn": 1541,
      "face": 1542,
      "Ġcost": 1543,
      "ended": 1544,
      "irc": 1545,
      "por": 1546,
      "âĢĵ": 1547,
      "ither": 1548,
      "Ġanal": 1549,
      "lu": 1550,
      "ways": 1551,
      "Ġrun": 1552,
      "resent": 1553,
      "Ġopen": 1554,
      "ories": 1555,
      "icle": 1556,
      "Ġperform": 1557,
      "Ġbetter": 1558,
      "Ġfar": 1559,
      "ole": 1560,
      "isc": 1561,
      "rid": 1562,
      "ope": 1563,
      "Ġthings": 1564,
      "ean": 1565,
      "Ġcal": 1566,
      "Ġamong": 1567,
      "Ġinvol": 1568,
      "Ġproblems": 1569,
      "not": 1570,
      "Ġ16": 1571,
      "Ġdel": 1572,
      "ggest": 1573,
      "Ġorder": 1574,
      "Ġappear": 1575,
      "Ġcertain": 1576,
      "Ġtop": 1577,
      "Ġkeep": 1578,
      "Ġlater": 1579,
      "Ġcase": 1580,
      "une": 1581,
      "Ġlevels": 1582,
      "ĠOn": 1583,
      "ends": 1584,
      "Ġmonth": 1585,
      "abor": 1586,
      "Ġsocial": 1587,
      "ĠZ": 1588,
      "Ġable": 1589,
      "Ġbi": 1590,
      "Ġbased": 1591,
      "orld": 1592,
      "Ġlist": 1593,
      "Ġusually": 1594,
      "ĠHowever": 1595,
      "ged": 1596,
      "ĠCan": 1597,
      "Ġfac": 1598,
      "iter": 1599,
      "Ġwee": 1600,
      "oks": 1601,
      "Ġage": 1602,
      "Ġlet": 1603,
      "Ġmethod": 1604,
      "oid": 1605,
      "Ġcountry": 1606,
      "Ġ$": 1607,
      "Ġdoct": 1608,
      "Ġsignific": 1609,
      "Ġtri": 1610,
      "Ġexist": 1611,
      "Ġcomput": 1612,
      "Ġbro": 1613,
      "oll": 1614,
      "Ġcells": 1615,
      "aken": 1616,
      "ohn": 1617,
      "urther": 1618,
      "Ġrecord": 1619,
      "Ġsuggest": 1620,
      "ray": 1621,
      "Ġmean": 1622,
      "Ġsuccess": 1623,
      "Ġmedic": 1624,
      "Ġfin": 1625,
      "Ġfree": 1626,
      "Ġproblem": 1627,
      "Ġobs": 1628,
      "Ġcentury": 1629,
      "Ġsystems": 1630,
      "Ġseem": 1631,
      "Ġothers": 1632,
      "ones": 1633,
      "Ġsaf": 1634,
      "tt": 1635,
      "ternational": 1636,
      "Ġdeterm": 1637,
      "Ġplant": 1638,
      "ĠTe": 1639,
      "Ġput": 1640,
      "Ġspace": 1641,
      "Ġhapp": 1642,
      "ĠAf": 1643,
      "50": 1644,
      "atory": 1645,
      "Ġsw": 1646,
      "We": 1647,
      "orts": 1648,
      "Ġauthor": 1649,
      "ills": 1650,
      "Ġuntil": 1651,
      "Ġbook": 1652,
      "ention": 1653,
      "etic": 1654,
      "lection": 1655,
      "ateg": 1656,
      "ised": 1657,
      "ĠEurop": 1658,
      "Ġdescrib": 1659,
      "Ġaccess": 1660,
      "ances": 1661,
      "ately": 1662,
      "Ġresearc": 1663,
      "ember": 1664,
      "Ġassoci": 1665,
      "If": 1666,
      "Ġet": 1667,
      "ured": 1668,
      "Ġshort": 1669,
      "pec": 1670,
      "hem": 1671,
      "Ġpost": 1672,
      "vious": 1673,
      "Ġbus": 1674,
      "bo": 1675,
      "Ġresults": 1676,
      "pr": 1677,
      "aps": 1678,
      "Ġtrad": 1679,
      "erence": 1680,
      "aper": 1681,
      "Ġabove": 1682,
      "Ġspecial": 1683,
      "Ġvir": 1684,
      "Ġhard": 1685,
      "ots": 1686,
      "Ġtype": 1687,
      "iation": 1688,
      "Ġyoung": 1689,
      "Ġwind": 1690,
      "ĠOr": 1691,
      "Ġline": 1692,
      "Ġsing": 1693,
      "Ġcomb": 1694,
      "Ġlanguage": 1695,
      "Ġill": 1696,
      "Ġmillion": 1697,
      "alf": 1698,
      "ored": 1699,
      "lement": 1700,
      "Ġconditions": 1701,
      "Ġindust": 1702,
      "Ġcome": 1703,
      "over": 1704,
      "urch": 1705,
      "ĠEar": 1706,
      "rug": 1707,
      "Ġhowever": 1708,
      "most": 1709,
      "Ġsimilar": 1710,
      "ators": 1711,
      "ĠGen": 1712,
      "ling": 1713,
      "Ġmov": 1714,
      "Ġdri": 1715,
      "Ġapplic": 1716,
      "Ġamount": 1717,
      "erc": 1718,
      "Ġcancer": 1719,
      "Ġ198": 1720,
      "mber": 1721,
      "Ġclear": 1722,
      "icult": 1723,
      "200": 1724,
      "olic": 1725,
      "\".": 1726,
      "Ġcharacter": 1727,
      "Ġlo": 1728,
      "Ġpolit": 1729,
      "Ġdra": 1730,
      "work": 1731,
      "apt": 1732,
      "Ġ|": 1733,
      "Ġturn": 1734,
      "SA": 1735,
      "be": 1736,
      "Ġdeath": 1737,
      "app": 1738,
      "Ġstruct": 1739,
      "Ġaddress": 1740,
      "cial": 1741,
      "ptoms": 1742,
      "Ġnext": 1743,
      "ribut": 1744,
      "Ġalong": 1745,
      "Ġlikely": 1746,
      "ĠHealth": 1747,
      "Ġflow": 1748,
      "Ġdays": 1749,
      "Ġsignificant": 1750,
      "Ġpast": 1751,
      "Ġleast": 1752,
      "Ġprom": 1753,
      "obal": 1754,
      "Ġterm": 1755,
      "ĠCal": 1756,
      "Ġcountries": 1757,
      "Ġgre": 1758,
      "ĠBe": 1759,
      "ales": 1760,
      "Ġtemper": 1761,
      "11": 1762,
      "by": 1763,
      "ething": 1764,
      "aster": 1765,
      "Ġrele": 1766,
      "Ġpressure": 1767,
      "--": 1768,
      "atch": 1769,
      "idd": 1770,
      "ledge": 1771,
      "ects": 1772,
      "ches": 1773,
      "ĠJohn": 1774,
      "Ġincrease": 1775,
      "Ġer": 1776,
      "ode": 1777,
      "ormal": 1778,
      "Ġbehav": 1779,
      "Ġtru": 1780,
      "agement": 1781,
      "Ġdr": 1782,
      "uture": 1783,
      "ley": 1784,
      "Ġfeel": 1785,
      "Ġcirc": 1786,
      "Ġfunction": 1787,
      "Ġkind": 1788,
      "Ġgeneral": 1789,
      "ĠWhat": 1790,
      "Ġestab": 1791,
      "Ġcho": 1792,
      "Ġhigher": 1793,
      "ilities": 1794,
      "ĠWar": 1795,
      "ober": 1796,
      "ification": 1797,
      "Ġconn": 1798,
      "Ġhy": 1799,
      "ĠWorld": 1800,
      "Ġnever": 1801,
      "Ġtoget": 1802,
      "oman": 1803,
      "aining": 1804,
      "Ġtogether": 1805,
      "sw": 1806,
      "ĠMay": 1807,
      "ott": 1808,
      "Ġleft": 1809,
      "Ġrepresent": 1810,
      "Ġbenef": 1811,
      "Ġmult": 1812,
      "ĠMan": 1813,
      "wh": 1814,
      "ĠSy": 1815,
      "aces": 1816,
      "ours": 1817,
      "Ġenc": 1818,
      "ument": 1819,
      "Ġstudies": 1820,
      "Ġnecess": 1821,
      "ending": 1822,
      "acc": 1823,
      "Ġpopulation": 1824,
      "Ġbegin": 1825,
      "Ġwhether": 1826,
      "Ġask": 1827,
      "Ġcrit": 1828,
      "Ġfil": 1829,
      "ane": 1830,
      "As": 1831,
      "ued": 1832,
      "artment": 1833,
      "Ġcreat": 1834,
      "Ġdiscuss": 1835,
      "asing": 1836,
      "Ġaway": 1837,
      "ĠâĢĺ": 1838,
      "org": 1839,
      "itor": 1840,
      "pecially": 1841,
      "Ġside": 1842,
      "ape": 1843,
      "ĠCo": 1844,
      "ression": 1845,
      "St": 1846,
      "af": 1847,
      "What": 1848,
      "Ġcourse": 1849,
      "ĠGe": 1850,
      "ocus": 1851,
      "Ġfull": 1852,
      "aim": 1853,
      "ĠSo": 1854,
      "ublic": 1855,
      "Ġwords": 1856,
      "Ġsomething": 1857,
      "val": 1858,
      "Ġcases": 1859,
      "lands": 1860,
      "Ġcomplete": 1861,
      "elf": 1862,
      "Ġsurface": 1863,
      "Ġprofess": 1864,
      "Ġbecame": 1865,
      "aves": 1866,
      "nal": 1867,
      "Ġmaking": 1868,
      "ploy": 1869,
      "for": 1870,
      "ĠGerm": 1871,
      "Ġpred": 1872,
      "Ġstrong": 1873,
      "Ġgoing": 1874,
      "Ġdam": 1875,
      "eb": 1876,
      "Ġcommunity": 1877,
      "Ġsymptoms": 1878,
      "ĠBrit": 1879,
      "Ġfund": 1880,
      "str": 1881,
      "Ġeducation": 1882,
      "Ġresearchers": 1883,
      "cle": 1884,
      "ively": 1885,
      "earch": 1886,
      "Ġdifficult": 1887,
      "Ġlower": 1888,
      "Ġlearn": 1889,
      "ler": 1890,
      "right": 1891,
      "side": 1892,
      "hing": 1893,
      "ĠCar": 1894,
      "iting": 1895,
      "ĠAfric": 1896,
      "Ġalways": 1897,
      "Ġsite": 1898,
      "Ġtoday": 1899,
      "30": 1900,
      "ĠX": 1901,
      "ĠDep": 1902,
      "Ġtext": 1903,
      "etimes": 1904,
      "Ġ14": 1905,
      "Ġimpact": 1906,
      "Ġchanges": 1907,
      "ung": 1908,
      "atures": 1909,
      "ĠAmerica": 1910,
      "Ġbrain": 1911,
      "For": 1912,
      "ery": 1913,
      "Ġconsum": 1914,
      "Ġkey": 1915,
      "Ġfuture": 1916,
      "ruction": 1917,
      "Ġprim": 1918,
      "ird": 1919,
      "verage": 1920,
      "ĠBl": 1921,
      "Ġ197": 1922,
      "Ġparent": 1923,
      "Ġfurther": 1924,
      "ilt": 1925,
      "Ġgive": 1926,
      ".)": 1927,
      "Ġ11": 1928,
      "sych": 1929,
      "mp": 1930,
      "Ġconsider": 1931,
      "iam": 1932,
      "Ġspecific": 1933,
      "uel": 1934,
      "ĠBy": 1935,
      "Ġ30": 1936,
      "Ġprob": 1937,
      "Ġpatients": 1938,
      "selves": 1939,
      "Ġann": 1940,
      "ffic": 1941,
      "ortun": 1942,
      "Ġespecially": 1943,
      "ann": 1944,
      "Ġinvest": 1945,
      "enn": 1946,
      "omes": 1947,
      "Ġhaving": 1948,
      "Ġchem": 1949,
      "Ġindic": 1950,
      "Ġdue": 1951,
      "ique": 1952,
      "An": 1953,
      "Ġsubject": 1954,
      "There": 1955,
      "Ġmedical": 1956,
      "Ġrespons": 1957,
      "ĠSoc": 1958,
      "oon": 1959,
      "Ġclose": 1960,
      "ma": 1961,
      "Ġmot": 1962,
      "Ġacross": 1963,
      "Ġeither": 1964,
      "acy": 1965,
      "Ġcreate": 1966,
      "Ġoffic": 1967,
      "Ġenough": 1968,
      "Ġworks": 1969,
      "ges": 1970,
      "edi": 1971,
      "ĠYork": 1972,
      "Ġrelig": 1973,
      "Ġtool": 1974,
      "ox": 1975,
      "Ġupon": 1976,
      "ready": 1977,
      "Ġrequire": 1978,
      "ipp": 1979,
      "Ġdrug": 1980,
      "duct": 1981,
      "ĠState": 1982,
      "Ġmass": 1983,
      "sh": 1984,
      "Ġfive": 1985,
      "Ġsam": 1986,
      "Ġz": 1987,
      "son": 1988,
      "Ġfocus": 1989,
      "Ġhouse": 1990,
      "Ġdeg": 1991,
      "Ġaccording": 1992,
      "Ġaccount": 1993,
      "Ġdeveloped": 1994,
      "rel": 1995,
      "Ġrange": 1996,
      "ibr": 1997,
      "Ġgroups": 1998,
      "rams": 1999,
      "Ġseen": 2000,
      "Ġpublished": 2001,
      "Ġeffects": 2002,
      "Ġground": 2003,
      "Ġsun": 2004,
      "ison": 2005,
      "ĠRep": 2006,
      "Ġsingle": 2007,
      "Ġsum": 2008,
      "Ġconcer": 2009,
      "ĠSome": 2010,
      "Ġevidence": 2011,
      "Ġteam": 2012,
      "NA": 2013,
      "reg": 2014,
      "ĠLe": 2015,
      "Ġphysical": 2016,
      "Ġneeds": 2017,
      "ites": 2018,
      "Ġnational": 2019,
      "Ġrather": 2020,
      "ĠUS": 2021,
      "Ġscience": 2022,
      "thing": 2023,
      "Ġparticip": 2024,
      "Ġquestion": 2025,
      "Ġtaken": 2026,
      "overed": 2027,
      "lo": 2028,
      "ivil": 2029,
      "Ġflu": 2030,
      "Ġtry": 2031,
      "Ġgas": 2032,
      "ĠOne": 2033,
      "oney": 2034,
      "Ġplants": 2035,
      "ĠNorth": 2036,
      "Ġwhy": 2037,
      "istic": 2038,
      "Ġabs": 2039,
      "cul": 2040,
      "ĠThat": 2041,
      "Ġcr": 2042,
      "Ġred": 2043,
      "Ġanimals": 2044,
      "let": 2045,
      "ows": 2046,
      "Ġinflu": 2047,
      "Ġproduction": 2048,
      "Ġphot": 2049,
      "ae": 2050,
      "13": 2051,
      "Ġreason": 2052,
      "Ġrecogn": 2053,
      "Ġalready": 2054,
      "my": 2055,
      "Ġreturn": 2056,
      "aring": 2057,
      "ĠHist": 2058,
      "Ġhistor": 2059,
      "Ġbar": 2060,
      "Ġgr": 2061,
      "rict": 2062,
      "ĠAss": 2063,
      "Ġvarious": 2064,
      "Ġlearning": 2065,
      "17": 2066,
      "Ġ2012": 2067,
      "Ġcame": 2068,
      "Ġobserv": 2069,
      "ps": 2070,
      "yl": 2071,
      "Ġfield": 2072,
      "unt": 2073,
      "put": 2074,
      "Ġteac": 2075,
      "ĠEnglish": 2076,
      "Ġstates": 2077,
      "ĠGo": 2078,
      "Ġword": 2079,
      "//": 2080,
      "aced": 2081,
      "16": 2082,
      "sc": 2083,
      "ĠEarth": 2084,
      "Ġcollect": 2085,
      "Ġworking": 2086,
      "ER": 2087,
      "reme": 2088,
      "ington": 2089,
      "Ġfall": 2090,
      "eter": 2091,
      "plic": 2092,
      "Ġmeet": 2093,
      "Ġpolic": 2094,
      "Ġtechnology": 2095,
      "Ġtypes": 2096,
      "Ġarg": 2097,
      "Ġgrowth": 2098,
      "ĠSouth": 2099,
      "Ġdone": 2100,
      "Ġrate": 2101,
      "Ġmembers": 2102,
      "Ġfrequ": 2103,
      "Ġ13": 2104,
      "bon": 2105,
      "Ġsource": 2106,
      "Ġbig": 2107,
      "Ġexperience": 2108,
      "ibility": 2109,
      "Ch": 2110,
      "Ġwhole": 2111,
      "ires": 2112,
      "Ġsens": 2113,
      "Ġbuilding": 2114,
      "port": 2115,
      "acks": 2116,
      "oura": 2117,
      "Ġey": 2118,
      "Ġcreated": 2119,
      "Ġlive": 2120,
      "Ġliving": 2121,
      "Ġresources": 2122,
      "Ġevent": 2123,
      "estern": 2124,
      "ask": 2125,
      "Ġdest": 2126,
      "15": 2127,
      "ream": 2128,
      "aut": 2129,
      "ĠHar": 2130,
      "osis": 2131,
      "Ġhalf": 2132,
      "Ġstep": 2133,
      "Ġcity": 2134,
      "Ġport": 2135,
      "ĠMar": 2136,
      "Ġbelow": 2137,
      "Ġknowledge": 2138,
      "Ġsound": 2139,
      "Ġdoctor": 2140,
      "Ġnet": 2141,
      "amin": 2142,
      "Ġansw": 2143,
      "ened": 2144,
      "oles": 2145,
      "Ġwr": 2146,
      "Ġalmost": 2147,
      "ĠDr": 2148,
      "Ġvalue": 2149,
      "Ġdoc": 2150,
      "Ġreact": 2151,
      "urb": 2152,
      "Ġcannot": 2153,
      "Ġclimate": 2154,
      "Ġfail": 2155,
      "ried": 2156,
      "Ġimprove": 2157,
      "Ġtoward": 2158,
      "Ġrole": 2159,
      "Ġstat": 2160,
      "ĠStud": 2161,
      "Ġinit": 2162,
      "like": 2163,
      "ttp": 2164,
      "Ġri": 2165,
      "Ġtot": 2166,
      "://": 2167,
      "Ġnature": 2168,
      "itted": 2169,
      "Ġwide": 2170,
      "ournal": 2171,
      "Ġmodel": 2172,
      "oot": 2173,
      "Ġonce": 2174,
      "Ġfamil": 2175,
      "inter": 2176,
      "vention": 2177,
      "Ġproducts": 2178,
      "Ġopt": 2179,
      "Ġactivity": 2180,
      "ront": 2181,
      "Ġsepar": 2182,
      "Ġess": 2183,
      "Ġbegan": 2184,
      "Ġbusiness": 2185,
      "alt": 2186,
      "ĠAg": 2187,
      "Ġmakes": 2188,
      "Ġthought": 2189,
      "ript": 2190,
      "ores": 2191,
      "Ġways": 2192,
      "roll": 2193,
      "itud": 2194,
      "Ġactivities": 2195,
      "mb": 2196,
      "Ġentire": 2197,
      "Ġdetail": 2198,
      "ĠAct": 2199,
      "Ġearth": 2200,
      "Ġquestions": 2201,
      "Ġhold": 2202,
      "Ġparts": 2203,
      "Ġprinc": 2204,
      "Ġge": 2205,
      "ĠWith": 2206,
      "Ġarticle": 2207,
      "Ġrelated": 2208,
      "Ġcomputer": 2209,
      "Ġsea": 2210,
      "ables": 2211,
      "ony": 2212,
      "Ġcommunic": 2213,
      "Ġthemselves": 2214,
      "Ġwhite": 2215,
      "Ġneeded": 2216,
      "apan": 2217,
      "Ġitself": 2218,
      "opy": 2219,
      "Ġrelations": 2220,
      "aching": 2221,
      "Ġoil": 2222,
      "fact": 2223,
      "Ġreally": 2224,
      "Ġsure": 2225,
      "Ġtell": 2226,
      "iple": 2227,
      "chie": 2228,
      "'re": 2229,
      "14": 2230,
      "Ġpaper": 2231,
      "Ġarch": 2232,
      "How": 2233,
      "Ġcamp": 2234,
      "augh": 2235,
      "Ġmonths": 2236,
      "uation": 2237,
      "rad": 2238,
      "Ġprotect": 2239,
      "Ġscientists": 2240,
      "Ġengine": 2241,
      "ĠCenter": 2242,
      "hib": 2243,
      "epend": 2244,
      "):": 2245,
      "ume": 2246,
      "Ġintrodu": 2247,
      "Ġloss": 2248,
      "Ġrecomm": 2249,
      "Ġaddition": 2250,
      "Ġstory": 2251,
      "itary": 2252,
      "urs": 2253,
      "ush": 2254,
      "Ġspe": 2255,
      "Ġincreased": 2256,
      "Ġservices": 2257,
      "Ġtook": 2258,
      "Ġassociated": 2259,
      "Ġconsidered": 2260,
      "leep": 2261,
      "Ġ194": 2262,
      "yn": 2263,
      "Ġpage": 2264,
      "minist": 2265,
      "Ġsize": 2266,
      "ricult": 2267,
      "Ġrequired": 2268,
      "Ġpolitical": 2269,
      "Ġdom": 2270,
      "ĠInstit": 2271,
      "Ġmeasure": 2272,
      "ĠJew": 2273,
      "Ġadult": 2274,
      "Ġmodern": 2275,
      "Ġ196": 2276,
      "ederal": 2277,
      "Ġpotential": 2278,
      "Ġregion": 2279,
      "ivity": 2280,
      "gest": 2281,
      "ĠAb": 2282,
      "Ġweek": 2283,
      "eds": 2284,
      "vere": 2285,
      "illed": 2286,
      "Ġprovides": 2287,
      "aries": 2288,
      "iol": 2289,
      "ĠShe": 2290,
      "pid": 2291,
      "Ġvers": 2292,
      "Ġcut": 2293,
      "chan": 2294,
      "Ġweight": 2295,
      "Ġver": 2296,
      "Ġproduce": 2297,
      "Ġdiagn": 2298,
      "Ġrights": 2299,
      "ĠII": 2300,
      "icro": 2301,
      "sequ": 2302,
      "Ġ2011": 2303,
      "iding": 2304,
      "ips": 2305,
      "ney": 2306,
      "atter": 2307,
      "Ġyet": 2308,
      "iment": 2309,
      "ĠPr": 2310,
      "ES": 2311,
      "light": 2312,
      "Ġmor": 2313,
      "To": 2314,
      "Ġemer": 2315,
      "oses": 2316,
      "iddle": 2317,
      "Ġfarm": 2318,
      "Ġsuper": 2319,
      "ength": 2320,
      "Al": 2321,
      "ule": 2322,
      "Ġlink": 2323,
      "Ġsent": 2324,
      "Ġservice": 2325,
      "iforn": 2326,
      "Ġ50": 2327,
      "ĠDepartment": 2328,
      "ai": 2329,
      "Ġ100": 2330,
      "Ġpriv": 2331,
      "ev": 2332,
      "empt": 2333,
      "iction": 2334,
      "Ġglobal": 2335,
      "Ġcy": 2336,
      "Ġtrue": 2337,
      "ĠGu": 2338,
      "rect": 2339,
      "urg": 2340,
      "Ġdeb": 2341,
      "amm": 2342,
      "Ġever": 2343,
      "ysis": 2344,
      "ĠAm": 2345,
      "eding": 2346,
      "Ġsimple": 2347,
      "onse": 2348,
      "Ġsix": 2349,
      "Ġfri": 2350,
      "ĠHis": 2351,
      "Ġprovided": 2352,
      "Ġblack": 2353,
      "Ġclaim": 2354,
      "Ġshows": 2355,
      "Ġsense": 2356,
      "ĠÂ": 2357,
      "Ġreduce": 2358,
      "Ġself": 2359,
      "Ġheav": 2360,
      "ief": 2361,
      "Ġrecent": 2362,
      "When": 2363,
      "attle": 2364,
      "Ġ=": 2365,
      "ensive": 2366,
      "ifornia": 2367,
      "ashington": 2368,
      "ĠScience": 2369,
      "go": 2370,
      "Ġaction": 2371,
      "Ġquality": 2372,
      "Ġissues": 2373,
      "Ġdiet": 2374,
      "lor": 2375,
      "Ġnut": 2376,
      "ĠComp": 2377,
      "Ġtheory": 2378,
      "Ġdig": 2379,
      "ĠJapan": 2380,
      "ety": 2381,
      "fer": 2382,
      "ĠEd": 2383,
      "Ġ2008": 2384,
      "Ġ2010": 2385,
      "rated": 2386,
      "Ġskin": 2387,
      "Ġenvironmental": 2388,
      "__": 2389,
      "IV": 2390,
      "ĠWill": 2391,
      "Ġcondition": 2392,
      "Ġeconomic": 2393,
      "Ġrelative": 2394,
      "Ġfire": 2395,
      "Ġexerc": 2396,
      "ĠAust": 2397,
      "Ġactually": 2398,
      "Ġdisord": 2399,
      "Ġterms": 2400,
      "lying": 2401,
      "ĠCont": 2402,
      "Ġprevious": 2403,
      "Ġ25": 2404,
      "Ġquick": 2405,
      "ilos": 2406,
      "ĠSchool": 2407,
      "Ġsometimes": 2408,
      "Ġgreen": 2409,
      "aff": 2410,
      "Ġneg": 2411,
      "Ġidea": 2412,
      "Ġsou": 2413,
      "Ġfish": 2414,
      "Ġorigin": 2415,
      "Ġconcept": 2416,
      "Ġsex": 2417,
      "Ġachie": 2418,
      "Ġregard": 2419,
      "abet": 2420,
      "Ġvari": 2421,
      "Ã©": 2422,
      "Ġsoft": 2423,
      "Ġaverage": 2424,
      "Ġmind": 2425,
      "Ġfat": 2426,
      "ops": 2427,
      "Ġliter": 2428,
      "based": 2429,
      "eration": 2430,
      "ĠResearch": 2431,
      "pro": 2432,
      "igure": 2433,
      "Ġpay": 2434,
      "Ġaccept": 2435,
      "ections": 2436,
      "uck": 2437,
      "Ġmatter": 2438,
      "AR": 2439,
      "cient": 2440,
      "Ġfem": 2441,
      "ĠNo": 2442,
      "inary": 2443,
      "Ġmach": 2444,
      "Ġcoll": 2445,
      "IN": 2446,
      "abit": 2447,
      "Ġ2009": 2448,
      "Ġla": 2449,
      "Ġbehavior": 2450,
      "ival": 2451,
      "Ġnecessary": 2452,
      "Ġposition": 2453,
      "ĠCalifornia": 2454,
      "Ġprote": 2455,
      "Ġprograms": 2456,
      "Ġhours": 2457,
      "irm": 2458,
      "rought": 2459,
      "Ġchall": 2460,
      "Ġcaused": 2461,
      "Ġlay": 2462,
      "aged": 2463,
      "ternal": 2464,
      "ences": 2465,
      "Ġmanagement": 2466,
      "Ġmaint": 2467,
      "25": 2468,
      "ĠSec": 2469,
      "Ġstandard": 2470,
      "Ġcle": 2471,
      "usion": 2472,
      "Ġmaterials": 2473,
      "Ġeffective": 2474,
      "hold": 2475,
      "oly": 2476,
      "hood": 2477,
      "rown": 2478,
      "icles": 2479,
      "ada": 2480,
      "vey": 2481,
      "rie": 2482,
      "new": 2483,
      "ĠPe": 2484,
      "But": 2485,
      "utes": 2486,
      "ropri": 2487,
      "Ġgreater": 2488,
      "het": 2489,
      "erve": 2490,
      "ched": 2491,
      "ners": 2492,
      "Ġgenerally": 2493,
      "ille": 2494,
      "Ġconduct": 2495,
      "Ġlonger": 2496,
      "Ġmarket": 2497,
      "lege": 2498,
      "Ġprec": 2499,
      "Ġchemical": 2500,
      "ister": 2501,
      "ĠPres": 2502,
      "Ġheat": 2503,
      "You": 2504,
      "Ġlab": 2505,
      "Ġincreasing": 2506,
      "Ġparents": 2507,
      "Ġlot": 2508,
      "rench": 2509,
      "Ġmoney": 2510,
      "cil": 2511,
      "ervation": 2512,
      "Ġbuilt": 2513,
      "ese": 2514,
      "Ġpath": 2515,
      "ĠWashington": 2516,
      "ĠJan": 2517,
      "irit": 2518,
      "Ġincludes": 2519,
      "Ġprobably": 2520,
      "Ġtotal": 2521,
      "Ġtaking": 2522,
      "Ġapproach": 2523,
      "ĠBritish": 2524,
      "Ġnight": 2525,
      "Ġnormal": 2526,
      "Ġforms": 2527,
      "ached": 2528,
      "Ġcauses": 2529,
      "utions": 2530,
      "ply": 2531,
      "urity": 2532,
      "ĠCount": 2533,
      "Ġfeet": 2534,
      "Ġemploy": 2535,
      "Ġreview": 2536,
      "Ġled": 2537,
      "Ġcomplex": 2538,
      "ĠInf": 2539,
      "Ġtemperature": 2540,
      "Ġple": 2541,
      "thern": 2542,
      "izing": 2543,
      "Ġindustry": 2544,
      "Ġthroughout": 2545,
      "Ġsurv": 2546,
      "know": 2547,
      "Ġability": 2548,
      "ĠDo": 2549,
      "Ġslow": 2550,
      "cies": 2551,
      "arily": 2552,
      "Ġtravel": 2553,
      "asc": 2554,
      "Ġx": 2555,
      "bor": 2556,
      "nces": 2557,
      "Ġrepl": 2558,
      "Ġ24": 2559,
      "Ġeffic": 2560,
      "iences": 2561,
      "ĠAfter": 2562,
      "ster": 2563,
      "Ġens": 2564,
      "Ġcolor": 2565,
      "Ġut": 2566,
      "ze": 2567,
      "Ġlate": 2568,
      "ccording": 2569,
      "Ġpurp": 2570,
      "Ġcontain": 2571,
      "Ġdiv": 2572,
      "Ġpattern": 2573,
      "Ġcontact": 2574,
      "Ġmechan": 2575,
      "uary": 2576,
      "Ġoutside": 2577,
      "Ġconc": 2578,
      "ump": 2579,
      "Ġfactors": 2580,
      "Ġsleep": 2581,
      "amb": 2582,
      "AT": 2583,
      "amed": 2584,
      "Ġvacc": 2585,
      "Ġpractice": 2586,
      "anced": 2587,
      "hern": 2588,
      "Ġincluded": 2589,
      "umb": 2590,
      "Ġsat": 2591,
      "Ġvisit": 2592,
      "erous": 2593,
      "coh": 2594,
      "ening": 2595,
      "ĠPar": 2596,
      "istics": 2597,
      "Ġproduced": 2598,
      "Ġwritten": 2599,
      "Ġsett": 2600,
      "ulations": 2601,
      "Ġsuff": 2602,
      "ĠFran": 2603,
      "lt": 2604,
      "rans": 2605,
      "Ġreef": 2606,
      "Ġrul": 2607,
      "Ġrev": 2608,
      "ON": 2609,
      "Ġunderstanding": 2610,
      "atives": 2611,
      "ĠJu": 2612,
      "ĠServ": 2613,
      "Ġuses": 2614,
      "Ġtalk": 2615,
      "Ġelectric": 2616,
      "Ġdou": 2617,
      "Ġcheck": 2618,
      "Ġproced": 2619,
      "Ġscientific": 2620,
      "dom": 2621,
      "Ġreported": 2622,
      "ĠInstitute": 2623,
      "Ġdeep": 2624,
      "Ġpopular": 2625,
      "ym": 2626,
      "ext": 2627,
      "Ġspread": 2628,
      "Ġsubst": 2629,
      "Ġoriginal": 2630,
      "Ġsources": 2631,
      "ĠPress": 2632,
      "imately": 2633,
      "Ġsust": 2634,
      "ĠEurope": 2635,
      "wise": 2636,
      "Ġbur": 2637,
      "ĠOct": 2638,
      "Ġdesigned": 2639,
      "Ġindividuals": 2640,
      "ius": 2641,
      "Ġlog": 2642,
      "see": 2643,
      "Ġdispl": 2644,
      "Ġattack": 2645,
      "Ġrefer": 2646,
      "Ġearl": 2647,
      "adem": 2648,
      "Ġce": 2649,
      "Ġstudent": 2650,
      "bre": 2651,
      "Ġsqu": 2652,
      "Ġevents": 2653,
      "Ġago": 2654,
      "Ġmusic": 2655,
      "inks": 2656,
      "Ġpsych": 2657,
      "Ġthing": 2658,
      "Ġstrateg": 2659,
      "isions": 2660,
      "Ġnuc": 2661,
      "Ġir": 2662,
      "Ġtar": 2663,
      "Ġschools": 2664,
      "Ġbelieve": 2665,
      "Ġpict": 2666,
      "Ġsoil": 2667,
      "Ġfa": 2668,
      "ribution": 2669,
      "Ġdeveloping": 2670,
      "Ġhttp": 2671,
      "Ġcomes": 2672,
      "ades": 2673,
      "aging": 2674,
      "ecause": 2675,
      "Ġresponse": 2676,
      "yle": 2677,
      "uth": 2678,
      "ĠCath": 2679,
      "Ġattempt": 2680,
      "Ġstructure": 2681,
      "Ġmovement": 2682,
      "ging": 2683,
      "Ġpoll": 2684,
      "Ġforce": 2685,
      "ription": 2686,
      "Ġunc": 2687,
      "Ġthus": 2688,
      "ĠQu": 2689,
      "istance": 2690,
      "Ġsearch": 2691,
      "Ġbr": 2692,
      "Ġinteract": 2693,
      "ography": 2694,
      "Ġwild": 2695,
      "Ġissue": 2696,
      "fully": 2697,
      "ĠPart": 2698,
      "Ġofficial": 2699,
      "ns": 2700,
      "orthern": 2701,
      "ancy": 2702,
      "ĠCons": 2703,
      "ĠChurch": 2704,
      "useum": 2705,
      "ĠAug": 2706,
      "Ġste": 2707,
      "aily": 2708,
      "IS": 2709,
      "ĠMin": 2710,
      "ĠPre": 2711,
      "aches": 2712,
      "cean": 2713,
      "Ġvariety": 2714,
      "aving": 2715,
      "Ġpersonal": 2716,
      "Ġeat": 2717,
      "ĠDav": 2718,
      "Ġcontent": 2719,
      "Ġpoor": 2720,
      "ming": 2721,
      "pect": 2722,
      "Ġsolar": 2723,
      "Ġthreat": 2724,
      "ufact": 2725,
      "Ġmess": 2726,
      "Ġkids": 2727,
      "ID": 2728,
      "Ġinternational": 2729,
      "www": 2730,
      "\",": 2731,
      "Ġestim": 2732,
      "Ġinvolved": 2733,
      "Ġbreak": 2734,
      "ising": 2735,
      "Ġonline": 2736,
      "Ġimplement": 2737,
      "Ġcoast": 2738,
      "ctions": 2739,
      "Ġhealthy": 2740,
      "ĠFrench": 2741,
      "Ġshown": 2742,
      "Ġtraining": 2743,
      "Ġserious": 2744,
      "Ġdamage": 2745,
      "ptember": 2746,
      "duc": 2747,
      "Ġavoid": 2748,
      "Ġshall": 2749,
      "Ġ40": 2750,
      "Ġinstru": 2751,
      "rapy": 2752,
      "ĠWest": 2753,
      "Ġlives": 2754,
      "Ġnation": 2755,
      "abetes": 2756,
      "Ġtax": 2757,
      "Ġcat": 2758,
      "Ġexc": 2759,
      "Ġveget": 2760,
      "ĠPer": 2761,
      "Ġwood": 2762,
      "Ġcoun": 2763,
      "Ġcarbon": 2764,
      "cohol": 2765,
      "Ġselect": 2766,
      "Ġassess": 2767,
      "raft": 2768,
      "Ġnumbers": 2769,
      "Ġreading": 2770,
      "Ġbring": 2771,
      "ĠMarch": 2772,
      "Ġalthough": 2773,
      "Ġelements": 2774,
      "Ġappl": 2775,
      "itation": 2776,
      "Ġord": 2777,
      "Ġsouth": 2778,
      "Ġfoods": 2779,
      "pril": 2780,
      "itude": 2781,
      "Ġcompon": 2782,
      "Ġextreme": 2783,
      "Ġopportun": 2784,
      "Ġanalysis": 2785,
      "AC": 2786,
      "Ġtherefore": 2787,
      "ider": 2788,
      "ĠBar": 2789,
      "rial": 2790,
      "Ġdescribed": 2791,
      "ĠHistory": 2792,
      "ĠSu": 2793,
      "Ġwhose": 2794,
      "ĠChina": 2795,
      "ĠMany": 2796,
      "ene": 2797,
      "ĠCom": 2798,
      "Ġnorth": 2799,
      "Ġcentral": 2800,
      "Ġsimply": 2801,
      "ibrary": 2802,
      "haps": 2803,
      "Ġcrop": 2804,
      "Ġmagn": 2805,
      "ĠMore": 2806,
      "ĠEl": 2807,
      "ĠWhile": 2808,
      "Ġwebs": 2809,
      "Ġwarm": 2810,
      "Ġremov": 2811,
      "Ġtown": 2812,
      "ĠJune": 2813,
      "Ġrelationship": 2814,
      "rate": 2815,
      "Ġi": 2816,
      "ads": 2817,
      "Ġmiles": 2818,
      "rast": 2819,
      "isms": 2820,
      "set": 2821,
      "ĠDes": 2822,
      "Ġconsist": 2823,
      "Ġmount": 2824,
      "On": 2825,
      "atab": 2826,
      "Ġseries": 2827,
      "ĠWilliam": 2828,
      "Ġeth": 2829,
      "ressed": 2830,
      "ĠApp": 2831,
      "Ġ2007": 2832,
      "And": 2833,
      "Ġthird": 2834,
      "Ġimage": 2835,
      "ovember": 2836,
      "term": 2837,
      "Ġexcept": 2838,
      "Ġindepend": 2839,
      "pe": 2840,
      "Ġ/": 2841,
      "Ġgrowing": 2842,
      "Ġforest": 2843,
      "Ġheld": 2844,
      "undred": 2845,
      "mon": 2846,
      "ĠProg": 2847,
      "Ġestablished": 2848,
      "verse": 2849,
      "Ġcompany": 2850,
      "Ġvirus": 2851,
      "Ġstop": 2852,
      "Ġjob": 2853,
      "Ġdemon": 2854,
      "rote": 2855,
      "Ġmeaning": 2856,
      "ĠWall": 2857,
      "rig": 2858,
      "Ġcool": 2859,
      "Ġthous": 2860,
      "Ġculture": 2861,
      "ror": 2862,
      "where": 2863,
      "Ġregular": 2864,
      "Ġcapt": 2865,
      "ronic": 2866,
      "ĠJuly": 2867,
      "24": 2868,
      "lex": 2869,
      "Ġactive": 2870,
      "ĠIndia": 2871,
      "Ġsociety": 2872,
      "Ġanimal": 2873,
      "Ġtarget": 2874,
      "ha": 2875,
      "AS": 2876,
      "oke": 2877,
      "Ġdirectly": 2878,
      "Ġencoura": 2879,
      "ino": 2880,
      "ĠAssoci": 2881,
      "Ġdocument": 2882,
      "elling": 2883,
      "Ġcommand": 2884,
      "Ġbott": 2885,
      "Ġinstead": 2886,
      "itte": 2887,
      "Ġviol": 2888,
      "ension": 2889,
      "Ġdefin": 2890,
      "Ġmilitary": 2891,
      "Ġadded": 2892,
      "dd": 2893,
      "Ġbasic": 2894,
      "He": 2895,
      "oor": 2896,
      "Ġfav": 2897,
      "Ġquite": 2898,
      "Ġpatient": 2899,
      "Ġparticularly": 2900,
      "ĠAustral": 2901,
      "AN": 2902,
      "ĠRiver": 2903,
      "Ġfamilies": 2904,
      "IC": 2905,
      "edia": 2906,
      "Ġcover": 2907,
      "ilosoph": 2908,
      "gar": 2909,
      "Ġfru": 2910,
      "Ġsevere": 2911,
      "Ġideas": 2912,
      "Ġdetermine": 2913,
      "Ġtree": 2914,
      "itch": 2915,
      "ĠGerman": 2916,
      "Ġbroad": 2917,
      "rance": 2918,
      "vest": 2919,
      "ĠBo": 2920,
      "ĠInternational": 2921,
      "Ġappropri": 2922,
      "Ġtrees": 2923,
      "rs": 2924,
      "hel": 2925,
      "Ġwall": 2926,
      "osing": 2927,
      "ems": 2928,
      "199": 2929,
      "Ġtakes": 2930,
      "Ġdog": 2931,
      "Ġlength": 2932,
      "Ġinteg": 2933,
      "Ġcompan": 2934,
      "Ġimmedi": 2935,
      "Ġwent": 2936,
      "Ġhor": 2937,
      "Ġhar": 2938,
      "ideo": 2939,
      "Ġfront": 2940,
      "ellow": 2941,
      "Ġmanufact": 2942,
      "Ġbirds": 2943,
      "Ġap": 2944,
      "Ġbase": 2945,
      "Ġface": 2946,
      "Ġprint": 2947,
      "Ġdrink": 2948,
      "iers": 2949,
      "Ġwa": 2950,
      "Ġrespect": 2951,
      "ights": 2952,
      "ternet": 2953,
      "aul": 2954,
      "Ġstri": 2955,
      "Ġskills": 2956,
      "ĠCor": 2957,
      "osition": 2958,
      "Ġeasy": 2959,
      "Ġcivil": 2960,
      "Ġevolution": 2961,
      "Ġsafe": 2962,
      "Ġnetwork": 2963,
      "gery": 2964,
      "ĠInc": 2965,
      "ĠKing": 2966,
      "iber": 2967,
      "astic": 2968,
      "Ġagricult": 2969,
      "year": 2970,
      "Ġlif": 2971,
      "reek": 2972,
      "80": 2973,
      "Ġfile": 2974,
      "Ġadditional": 2975,
      "Ġpolicy": 2976,
      "iency": 2977,
      "ĠRet": 2978,
      "Ġemb": 2979,
      "ĠEuropean": 2980,
      "ĠAugust": 2981,
      "anks": 2982,
      "Ġmedia": 2983,
      "Ġdraw": 2984,
      "issions": 2985,
      "Ġperm": 2986,
      "Ġexercise": 2987,
      "ĠRec": 2988,
      "mar": 2989,
      "Ġcross": 2990,
      "ĠSeptember": 2991,
      "Ġhimself": 2992,
      "Ġanswer": 2993,
      "Ġsil": 2994,
      "Ġadminist": 2995,
      "Ġcontinue": 2996,
      "Ġwriting": 2997,
      "Ġnearly": 2998,
      "Ġdang": 2999,
      "Ġlarger": 3000,
      "OR": 3001,
      "Ġcorrect": 3002,
      "ĠIndian": 3003,
      "rim": 3004,
      "Ġox": 3005,
      "osure": 3006,
      "Ġdoing": 3007,
      "Ġnews": 3008,
      "gn": 3009,
      "ĠHer": 3010,
      "ĠChristian": 3011,
      "Ġreligious": 3012,
      "ises": 3013,
      "Ġmethods": 3014,
      "Ġfeatures": 3015,
      "Ġetc": 3016,
      "40": 3017,
      "hens": 3018,
      "Ġaffect": 3019,
      "ĠSociety": 3020,
      "Ġrock": 3021,
      "Ġlimited": 3022,
      "uous": 3023,
      "Ġspeak": 3024,
      "Ġspeed": 3025,
      "Ġinstit": 3026,
      "Ġbooks": 3027,
      "Ġsafety": 3028,
      "Ġinvestig": 3029,
      "Ġfederal": 3030,
      "ama": 3031,
      "alled": 3032,
      "Ġmother": 3033,
      "Ġtests": 3034,
      "Ġtools": 3035,
      "ground": 3036,
      "aling": 3037,
      "ĠGl": 3038,
      "Ġinside": 3039,
      "cks": 3040,
      "Ġhundred": 3041,
      "rand": 3042,
      "ĠMost": 3043,
      "Ġprior": 3044,
      "Ġinj": 3045,
      "Ġlabor": 3046,
      "Ġcit": 3047,
      "ĠEduc": 3048,
      "ĠUnion": 3049,
      "Ġcenter": 3050,
      "Ġsold": 3051,
      "Ġreceived": 3052,
      "Ġseems": 3053,
      "ĠNe": 3054,
      "Ġapplication": 3055,
      "Ġmole": 3056,
      "ulf": 3057,
      "reng": 3058,
      "Ġbirth": 3059,
      "ĠCong": 3060,
      "Ġrapid": 3061,
      "uk": 3062,
      "Ġprep": 3063,
      "cember": 3064,
      "ĠPresident": 3065,
      "ĠChild": 3066,
      "Ġvalues": 3067,
      "Ġwrote": 3068,
      "ĠOther": 3069,
      "By": 3070,
      "aly": 3071,
      "ĠInt": 3072,
      "ĠOctober": 3073,
      "ico": 3074,
      "Ġrout": 3075,
      "Ġsustain": 3076,
      "ĠCatholic": 3077,
      ");": 3078,
      "ari": 3079,
      "ĠAmericans": 3080,
      "Ġsites": 3081,
      "Ġobjects": 3082,
      "Ġcard": 3083,
      "ĠApril": 3084,
      "elt": 3085,
      "Ġprogress": 3086,
      "uman": 3087,
      "Ġsoon": 3088,
      "uge": 3089,
      "Ġadop": 3090,
      "Ġdifference": 3091,
      "ĠAlthough": 3092,
      "Ġefforts": 3093,
      "ĠNovember": 3094,
      "Ġshare": 3095,
      "Ġquant": 3096,
      "Ġinterp": 3097,
      "ana": 3098,
      "oming": 3099,
      "Ġ2005": 3100,
      "na": 3101,
      "overy": 3102,
      "Ġconcent": 3103,
      "ĠHIV": 3104,
      "ĠEngland": 3105,
      "rees": 3106,
      "Ġcommer": 3107,
      "Ġattention": 3108,
      "Ġgetting": 3109,
      "Ġdoesn": 3110,
      "ĠJanuary": 3111,
      "Ġbab": 3112,
      "Ġ21": 3113,
      "Ġquickly": 3114,
      "ĠUs": 3115,
      "ĠChar": 3116,
      "ĠSm": 3117,
      "ford": 3118,
      "Ġcollection": 3119,
      "ĠMon": 3120,
      "Ġidentify": 3121,
      "Ġbacter": 3122,
      "ĠAc": 3123,
      "Ġseason": 3124,
      "asons": 3125,
      "itting": 3126,
      "Ġprimary": 3127,
      "yond": 3128,
      "Ġinfection": 3129,
      "ĠReg": 3130,
      "mosp": 3131,
      "Ġgenetic": 3132,
      "ridge": 3133,
      "ĠCounty": 3134,
      "Ġbeginning": 3135,
      "ls": 3136,
      "Ġlack": 3137,
      "Ġclean": 3138,
      "imum": 3139,
      "Ġ22": 3140,
      "ĠNot": 3141,
      "erson": 3142,
      "Ġdecl": 3143,
      "Ġpoints": 3144,
      "can": 3145,
      "Ġgot": 3146,
      "uments": 3147,
      "ĠVir": 3148,
      "Ġcontains": 3149,
      "Ġalcohol": 3150,
      "apter": 3151,
      "Ġobt": 3152,
      "Ġast": 3153,
      "ounds": 3154,
      "Ġhumans": 3155,
      "Ġstarted": 3156,
      "ying": 3157,
      "inct": 3158,
      "Ġborn": 3159,
      "pper": 3160,
      "ields": 3161,
      "Ġgradu": 3162,
      "bl": 3163,
      "Ġprivate": 3164,
      "ĠIS": 3165,
      "Ġcarry": 3166,
      "lation": 3167,
      "Ġpan": 3168,
      "Ġsequ": 3169,
      "Ġrespond": 3170,
      "Ġsoftware": 3171,
      "Ġhabit": 3172,
      "Ġdecre": 3173,
      "Ġreflect": 3174,
      "ĠFeb": 3175,
      "Ġlooking": 3176,
      "Ġdaily": 3177,
      "Ġeval": 3178,
      "Ġsection": 3179,
      "rag": 3180,
      "Ġmemory": 3181,
      "ĠOf": 3182,
      "ĠMc": 3183,
      "Ġcompet": 3184,
      "ĠArch": 3185,
      "Ġperformance": 3186,
      "Ġbenefits": 3187,
      "Ġaccur": 3188,
      "Ġcommunities": 3189,
      "Ġbrought": 3190,
      "sect": 3191,
      "Ġhighly": 3192,
      "ittee": 3193,
      "Ġrare": 3194,
      "ingu": 3195,
      "leb": 3196,
      "fect": 3197,
      "Ġep": 3198,
      "Ġlocation": 3199,
      "Ġleading": 3200,
      "EN": 3201,
      "Ġegg": 3202,
      "ĠCoun": 3203,
      "Ġstreng": 3204,
      "Ġexact": 3205,
      "Ġfeed": 3206,
      "ĠAfrica": 3207,
      "Ġproperty": 3208,
      "rieved": 3209,
      "Ġtransm": 3210,
      "Ġbit": 3211,
      "Ġhost": 3212,
      "Ġ23": 3213,
      "inese": 3214,
      "Ġelse": 3215,
      "22": 3216,
      "ĠFrom": 3217,
      "Ġlost": 3218,
      "Ġextra": 3219,
      "water": 3220,
      "Ġhot": 3221,
      "Ġuseful": 3222,
      "odies": 3223,
      "Ġsomeone": 3224,
      "Ġlargest": 3225,
      "Ġapplications": 3226,
      "Ġtend": 3227,
      "Ġlocated": 3228,
      "Ġpositive": 3229,
      "fficient": 3230,
      "ĠRuss": 3231,
      "Ġtold": 3232,
      "Ġtiss": 3233,
      "Ġlove": 3234,
      "Ġarm": 3235,
      "Ġtraditional": 3236,
      "Ġfuel": 3237,
      "Ġweather": 3238,
      "Ġ2013": 3239,
      "Ġsummer": 3240,
      "Ġice": 3241,
      "Ġformer": 3242,
      "Ġunique": 3243,
      "ceed": 3244,
      "ruary": 3245,
      "Ġcompared": 3246,
      "ospital": 3247,
      "bit": 3248,
      "Ġwebsite": 3249,
      "Ġmental": 3250,
      "Ġder": 3251,
      "ulate": 3252,
      "Ġrecently": 3253,
      "orge": 3254,
      "itis": 3255,
      "arian": 3256,
      "Ġnothing": 3257,
      "Ġpregn": 3258,
      "Ġoffer": 3259,
      "cell": 3260,
      "Ġclin": 3261,
      "Ġsupply": 3262,
      "60": 3263,
      "ĠPhil": 3264,
      "Ġcapac": 3265,
      "win": 3266,
      "Ġdied": 3267,
      "Ġsaw": 3268,
      "Ġallows": 3269,
      "Ġden": 3270,
      "Ġgovern": 3271,
      "Ġaware": 3272,
      "Ġdry": 3273,
      "Ġreve": 3274,
      "Ġstress": 3275,
      "Ġdiabetes": 3276,
      "time": 3277,
      "Ġsac": 3278,
      "Ġearlier": 3279,
      "Ġmiddle": 3280,
      "ĠAnt": 3281,
      "ĠMedic": 3282,
      "Ġsal": 3283,
      "Ġpp": 3284,
      "iles": 3285,
      "ĠCO": 3286,
      "ĠAfrican": 3287,
      "Ġimages": 3288,
      "ĠCour": 3289,
      "Ġ,": 3290,
      "Ġaltern": 3291,
      "Ġeasily": 3292,
      "ĠGeneral": 3293,
      "One": 3294,
      "PA": 3295,
      "hest": 3296,
      "Ġdisp": 3297,
      "Ġdemonstr": 3298,
      "Ġcompanies": 3299,
      "rical": 3300,
      "Ġremain": 3301,
      "Ġformed": 3302,
      "Ġcust": 3303,
      "head": 3304,
      "Ġcode": 3305,
      "Ġweb": 3306,
      "Ġtele": 3307,
      "entially": 3308,
      "Ġdead": 3309,
      "ought": 3310,
      "Ġhyp": 3311,
      "Ġlands": 3312,
      "ĠMe": 3313,
      "ald": 3314,
      "ĠRoman": 3315,
      "Ġconstit": 3316,
      "nes": 3317,
      "Ġfather": 3318,
      "ift": 3319,
      "Ġplaces": 3320,
      "omet": 3321,
      "rael": 3322,
      "Ġarri": 3323,
      "Ġprotection": 3324,
      "pite": 3325,
      "inated": 3326,
      "Ġnuclear": 3327,
      "ĠMex": 3328,
      "Ġprocesses": 3329,
      "ils": 3330,
      "Ġ190": 3331,
      "ĠWeb": 3332,
      "Ġcosts": 3333,
      "Ġtit": 3334,
      "olar": 3335,
      "life": 3336,
      "Ġblock": 3337,
      "Ġestablish": 3338,
      "Ġalone": 3339,
      "23": 3340,
      "ĠRed": 3341,
      "Ġbehind": 3342,
      "Ġasked": 3343,
      "eal": 3344,
      "Ġmill": 3345,
      "Ġ2006": 3346,
      "Ġhyd": 3347,
      "Ġteachers": 3348,
      "Ġharm": 3349,
      "ĠKe": 3350,
      "Ġagree": 3351,
      "fort": 3352,
      "Ġweeks": 3353,
      "Ġsurround": 3354,
      "Ġremains": 3355,
      "ĠDecember": 3356,
      "con": 3357,
      "Ġfram": 3358,
      "Ġmicro": 3359,
      "ĠCity": 3360,
      "ĠIm": 3361,
      "used": 3362,
      "ĠFirst": 3363,
      "ago": 3364,
      "Ġadj": 3365,
      "Ġcontribut": 3366,
      "Ġappears": 3367,
      "men": 3368,
      "Ġbad": 3369,
      "Ġbreat": 3370,
      "Ġinn": 3371,
      "room": 3372,
      "idents": 3373,
      "ĠConf": 3374,
      "Ġbasis": 3375,
      "Ġpredict": 3376,
      "ĠCongress": 3377,
      "Ġdark": 3378,
      "Ġmachine": 3379,
      "wide": 3380,
      "amer": 3381,
      "29": 3382,
      "atabase": 3383,
      "Ex": 3384,
      "âĢ¢": 3385,
      "Ġexec": 3386,
      "IT": 3387,
      "hy": 3388,
      "uff": 3389,
      "raw": 3390,
      "Ġstay": 3391,
      "Ġtransport": 3392,
      "ĠCommun": 3393,
      "ED": 3394,
      "Ġvit": 3395,
      "Ã¡": 3396,
      "ĠSan": 3397,
      "Ġtrade": 3398,
      "Ġdrugs": 3399,
      "ĠWallace": 3400,
      "ties": 3401,
      "Ġleaders": 3402,
      "Ġadults": 3403,
      "lim": 3404,
      "aters": 3405,
      "ully": 3406,
      "ĠAssociation": 3407,
      "orks": 3408,
      "urt": 3409,
      "ulated": 3410,
      "Ġrates": 3411,
      "Ġminutes": 3412,
      "ĠPark": 3413,
      "Ġcritical": 3414,
      "Ġchurch": 3415,
      "Ġchalleng": 3416,
      "Ġeating": 3417,
      "Ġones": 3418,
      "clus": 3419,
      "Ġhistorical": 3420,
      "Ġvict": 3421,
      "atin": 3422,
      "Ġpric": 3423,
      "Ġoccurs": 3424,
      "Ġang": 3425,
      "Ġinsp": 3426,
      "Ġmid": 3427,
      "Ġrise": 3428,
      "ĠJournal": 3429,
      "ĠArt": 3430,
      "Ġdiseases": 3431,
      "Ġroom": 3432,
      "Ġfemale": 3433,
      "ĠChinese": 3434,
      "ĠDevelop": 3435,
      "arr": 3436,
      "Ġjo": 3437,
      "At": 3438,
      "Ġfight": 3439,
      "omas": 3440,
      "Ġsurgery": 3441,
      "Ġsituation": 3442,
      "Ġlines": 3443,
      "ĠWind": 3444,
      "Ġreceive": 3445,
      "Ġbillion": 3446,
      "Ġhous": 3447,
      "Ġatmosp": 3448,
      "Ġscale": 3449,
      "Ġanti": 3450,
      "Ġtesting": 3451,
      "ĠSystem": 3452,
      "iples": 3453,
      "oes": 3454,
      "ĠOff": 3455,
      "Ġ2000": 3456,
      "airs": 3457,
      "Ġiron": 3458,
      "itz": 3459,
      "ula": 3460,
      "iques": 3461,
      "Ġlaws": 3462,
      "ĠCanada": 3463,
      "Ġinfluence": 3464,
      "omb": 3465,
      "Ġrequires": 3466,
      "Ġappropriate": 3467,
      "Ġadapt": 3468,
      "Ġdemand": 3469,
      "Ġhands": 3470,
      "Ġancient": 3471,
      "ipment": 3472,
      "Ġimportance": 3473,
      "Ġfollowed": 3474,
      "Ġbeyond": 3475,
      "Ġ195": 3476,
      "ondon": 3477,
      "Ġ60": 3478,
      "Ġrecords": 3479,
      "Ġdate": 3480,
      "aint": 3481,
      "27": 3482,
      "Ġwrite": 3483,
      "iny": 3484,
      "Ġforces": 3485,
      "Ġreach": 3486,
      "ĠSur": 3487,
      "ĠIsrael": 3488,
      "Ġanaly": 3489,
      "ĠSw": 3490,
      "irection": 3491,
      "Ġscreen": 3492,
      "ĠTechn": 3493,
      "encies": 3494,
      "izes": 3495,
      "atur": 3496,
      "Ġnamed": 3497,
      "Ġisland": 3498,
      "uries": 3499,
      "ector": 3500,
      "Ġdisplay": 3501,
      "reed": 3502,
      "Ġcold": 3503,
      "Ġten": 3504,
      "anish": 3505,
      "ĠJes": 3506,
      "ĠHouse": 3507,
      "ĠRo": 3508,
      "These": 3509,
      "Ġjud": 3510,
      "ĠYour": 3511,
      "Ġexpect": 3512,
      "Ġensure": 3513,
      "Ġfoot": 3514,
      "Ġasp": 3515,
      "resh": 3516,
      "ocks": 3517,
      "Ġinstance": 3518,
      "roy": 3519,
      "ĠNA": 3520,
      "Ġvirt": 3521,
      "resp": 3522,
      "Ġenter": 3523,
      "Ġprojects": 3524,
      "oring": 3525,
      "Ġ193": 3526,
      "ĠBi": 3527,
      "Ġ26": 3528,
      "izations": 3529,
      "king": 3530,
      "Ġsch": 3531,
      "Ġmention": 3532,
      "estic": 3533,
      "Ġolder": 3534,
      "aur": 3535,
      "Ġcopy": 3536,
      "ĠVol": 3537,
      "Ġoffice": 3538,
      "Ġmonitor": 3539,
      "Ġmember": 3540,
      "Ġidentified": 3541,
      "Ġachieve": 3542,
      "iece": 3543,
      "ixed": 3544,
      "ĠEnvironment": 3545,
      "So": 3546,
      "Ġtable": 3547,
      "ĠRetrieved": 3548,
      "ĠCouncil": 3549,
      "Ġdecision": 3550,
      "wo": 3551,
      "ĠSer": 3552,
      "Ġneigh": 3553,
      "Ġeight": 3554,
      "ĠSch": 3555,
      "iest": 3556,
      "Ġvideo": 3557,
      "Ġanything": 3558,
      "ĠDay": 3559,
      "ĠEast": 3560,
      "Ġacid": 3561,
      "Ġgives": 3562,
      "Ġcontinued": 3563,
      "aid": 3564,
      "iar": 3565,
      "erved": 3566,
      "inate": 3567,
      "Ġsn": 3568,
      "ĠPat": 3569,
      "Ġspirit": 3570,
      "Ġprotein": 3571,
      "ken": 3572,
      "Ġphysic": 3573,
      "Ġult": 3574,
      "Ġprice": 3575,
      "ĠSpec": 3576,
      "Ġwinter": 3577,
      "ologies": 3578,
      "known": 3579,
      "equ": 3580,
      "Ġcurrently": 3581,
      "HE": 3582,
      "Ġhelps": 3583,
      "Ġund": 3584,
      "ĠUN": 3585,
      "Ġcalcul": 3586,
      "21": 3587,
      "Pro": 3588,
      "ĠDNA": 3589,
      "Ġcourt": 3590,
      "udd": 3591,
      "Ġplaced": 3592,
      "Ġworked": 3593,
      "Ġexpected": 3594,
      "Ġsecurity": 3595,
      "Ġconstant": 3596,
      "Ġmultiple": 3597,
      "Ġsample": 3598,
      "Ġbal": 3599,
      "asion": 3600,
      "Ġtypically": 3601,
      "back": 3602,
      "hors": 3603,
      "Ġaud": 3604,
      "Ġpack": 3605,
      "oud": 3606,
      "Ġrob": 3607,
      "Ġriver": 3608,
      "otic": 3609,
      "Ġreports": 3610,
      "ĠFebruary": 3611,
      "Ġuser": 3612,
      "Ġcolon": 3613,
      "Ġinterpret": 3614,
      "26": 3615,
      "DA": 3616,
      "ĠRober": 3617,
      "ĠProgram": 3618,
      "cious": 3619,
      "ĠEc": 3620,
      "Ġgoes": 3621,
      "Ġsuccessful": 3622,
      "BN": 3623,
      "oma": 3624,
      "Ġnote": 3625,
      "Ġperhaps": 3626,
      "EC": 3627,
      "Ġmission": 3628,
      "Ġ27": 3629,
      "ĠRepublic": 3630,
      "erate": 3631,
      "istry": 3632,
      "Ġ...": 3633,
      "hemat": 3634,
      "book": 3635,
      "ĠProt": 3636,
      "Ġillust": 3637,
      "Ġcitiz": 3638,
      "reet": 3639,
      "oted": 3640,
      "Ġrecommend": 3641,
      "28": 3642,
      "ara": 3643,
      "ribute": 3644,
      "Ġpurpose": 3645,
      "Ġapprox": 3646,
      "'ve": 3647,
      "ira": 3648,
      "oe": 3649,
      "ĠFrance": 3650,
      "Ġenj": 3651,
      "Ġsmaller": 3652,
      "come": 3653,
      "illing": 3654,
      "ĠGreat": 3655,
      "Ġrain": 3656,
      "Ġveh": 3657,
      "Ġmom": 3658,
      "ĠEven": 3659,
      "Ġoccup": 3660,
      "Ġsolution": 3661,
      "Ġfinan": 3662,
      "aign": 3663,
      "nam": 3664,
      "Ġwalk": 3665,
      "imal": 3666,
      "Ġresponsible": 3667,
      "Ġcry": 3668,
      "Ġcred": 3669,
      "load": 3670,
      "ĠMod": 3671,
      "Ġ28": 3672,
      "eech": 3673,
      "Ġallowed": 3674,
      "Ġbound": 3675,
      "ĠBecause": 3676,
      "Ġequipment": 3677,
      "Ġdevice": 3678,
      "Ġsem": 3679,
      "Ġlat": 3680,
      "Ġcapital": 3681,
      "Ġfast": 3682,
      "Ġhon": 3683,
      "ste": 3684,
      "Ġlic": 3685,
      "Ġconsequ": 3686,
      "ĠPublic": 3687,
      "Ġvill": 3688,
      "II": 3689,
      "AL": 3690,
      "vert": 3691,
      "ears": 3692,
      "Ġdistance": 3693,
      "Ġequal": 3694,
      "Ġaffected": 3695,
      "vant": 3696,
      "Ġdirection": 3697,
      "âĢ¦": 3698,
      "ĠJust": 3699,
      "Ġacqu": 3700,
      "Ġdistribution": 3701,
      "Ġessential": 3702,
      "aught": 3703,
      "Ġliqu": 3704,
      "Ġbeg": 3705,
      "Ġpassed": 3706,
      "Ġstandards": 3707,
      "ST": 3708,
      "Un": 3709,
      "Ġchanged": 3710,
      "Ġelement": 3711,
      "Ġcommercial": 3712,
      "ĠSince": 3713,
      "Ġdifferences": 3714,
      "Ġdiscovered": 3715,
      "urban": 3716,
      "Ġversion": 3717,
      "ĠEducation": 3718,
      "che": 3719,
      "met": 3720,
      "ĠMy": 3721,
      "ĠHigh": 3722,
      "Ġpractices": 3723,
      "Ġceleb": 3724,
      "que": 3725,
      "ype": 3726,
      "Ġeye": 3727,
      "Ġcapacity": 3728,
      "90": 3729,
      "Ġpen": 3730,
      "rier": 3731,
      "Ġeffort": 3732,
      "rief": 3733,
      "Ġdegree": 3734,
      "ipl": 3735,
      "rogen": 3736,
      "orms": 3737,
      "Ġbecomes": 3738,
      "Ġautom": 3739,
      "Ġnames": 3740,
      "Ġsymb": 3741,
      "Ġfinal": 3742,
      "Ġgoal": 3743,
      "Ġdepend": 3744,
      "ĠMedical": 3745,
      "Ġradiation": 3746,
      "Ġcompletely": 3747,
      "ĠGreen": 3748,
      "Ġcommunication": 3749,
      "ĠPeople": 3750,
      "craft": 3751,
      "ĠAv": 3752,
      "edic": 3753,
      "Ġpresident": 3754,
      "Ġwaste": 3755,
      "Ġ186": 3756,
      "unch": 3757,
      "Ġmeasures": 3758,
      "Ġpicture": 3759,
      "more": 3760,
      "Ġ:": 3761,
      "ĠMich": 3762,
      "Ġleaves": 3763,
      "gy": 3764,
      "rates": 3765,
      "urd": 3766,
      "rab": 3767,
      "ĠProf": 3768,
      "ĠAlso": 3769,
      "enth": 3770,
      "Ġspect": 3771,
      "Ġcontroll": 3772,
      "Ġaim": 3773,
      "ĠPol": 3774,
      "Ġtowards": 3775,
      "Ġstru": 3776,
      "ĠDuring": 3777,
      "ensity": 3778,
      "Ġadvant": 3779,
      "Ġmoving": 3780,
      "ky": 3781,
      "imens": 3782,
      "ĠSee": 3783,
      "Ġslight": 3784,
      "Ġthinking": 3785,
      "Ġfriends": 3786,
      "Ġrelatively": 3787,
      "Ġur": 3788,
      "Ġson": 3789,
      "ĠRev": 3790,
      "Ġplanet": 3791,
      "ĠDavid": 3792,
      "gency": 3793,
      "Ġmale": 3794,
      "Ġtruth": 3795,
      "Ġwatch": 3796,
      "Ġsusp": 3797,
      "Ġexhib": 3798,
      "Ġlegal": 3799,
      "ET": 3800,
      "Ġcou": 3801,
      "Ġwon": 3802,
      "ĠAccording": 3803,
      "oday": 3804,
      "Ġselection": 3805,
      "Ġshowed": 3806,
      "Ġseparate": 3807,
      "rehens": 3808,
      "Ġgame": 3809,
      "ĠLaw": 3810,
      "pris": 3811,
      "Ġpet": 3812,
      "ĠTra": 3813,
      "Ġ29": 3814,
      "Ġdefined": 3815,
      "'ll": 3816,
      "EL": 3817,
      "co": 3818,
      "ania": 3819,
      "ida": 3820,
      "ession": 3821,
      "ĠLondon": 3822,
      "Ġproviding": 3823,
      "ĠCourt": 3824,
      "rew": 3825,
      "Ġnative": 3826,
      "ĠDis": 3827,
      "ĠEm": 3828,
      "ĠPlan": 3829,
      "Ġrules": 3830,
      "cape": 3831,
      "Ġball": 3832,
      "antic": 3833,
      "Ġcommonly": 3834,
      "Ġgave": 3835,
      "ests": 3836,
      "ĠRead": 3837,
      "lin": 3838,
      "ĠJames": 3839,
      "wards": 3840,
      "Ġbelief": 3841,
      "cles": 3842,
      "Ġswe": 3843,
      "Ġgenes": 3844,
      "Ġdisorder": 3845,
      "Ġsouthern": 3846,
      "All": 3847,
      "Â°": 3848,
      "Ġreasons": 3849,
      "rian": 3850,
      "Ġeverything": 3851,
      "Ġfindings": 3852,
      "ĠGovernment": 3853,
      "ĠJesus": 3854,
      "cont": 3855,
      "ĠFound": 3856,
      "Ġsurvey": 3857,
      "ero": 3858,
      "Ġ2003": 3859,
      "Ġgeneration": 3860,
      "Ġfaith": 3861,
      "ett": 3862,
      "Ġphilosoph": 3863,
      "Ġreduced": 3864,
      "Ġprices": 3865,
      "With": 3866,
      "iant": 3867,
      "ĠSim": 3868,
      "ibly": 3869,
      "ĠMuseum": 3870,
      "Ġimag": 3871,
      "Ġcoral": 3872,
      "Ġtechniques": 3873,
      "Ġpurch": 3874,
      "Ġdegrees": 3875,
      "ĠService": 3876,
      "70": 3877,
      "su": 3878,
      "Ġnorthern": 3879,
      "ĠMount": 3880,
      "ĠInternet": 3881,
      "Ġeyes": 3882,
      "New": 3883,
      "Ġtum": 3884,
      "sec": 3885,
      "ĠMary": 3886,
      "ellig": 3887,
      "Ġjoint": 3888,
      "Ġreference": 3889,
      "ĠEnergy": 3890,
      "Ġcateg": 3891,
      "Ġnor": 3892,
      "ĠWater": 3893,
      "Ġexposure": 3894,
      "off": 3895,
      "ĠWestern": 3896,
      "ocr": 3897,
      "Ġconstruction": 3898,
      "Ġcultural": 3899,
      "Ġcreating": 3900,
      "Ġtrying": 3901,
      "Ġmiss": 3902,
      "Ġsugar": 3903,
      "ĠFl": 3904,
      "Ġillness": 3905,
      "Ġapplied": 3906,
      "Ġbottom": 3907,
      "Ġexperim": 3908,
      "iverse": 3909,
      "name": 3910,
      "Ġmut": 3911,
      "ample": 3912,
      "Ġauthors": 3913,
      "Ġgold": 3914,
      "cast": 3915,
      "itect": 3916,
      "itable": 3917,
      "Some": 3918,
      "Ġdeal": 3919,
      "Ġcoming": 3920,
      "Ġcompar": 3921,
      "Ġmodels": 3922,
      "ML": 3923,
      "acific": 3924,
      "Ġrepe": 3925,
      "Ġincreases": 3926,
      "Ġpresented": 3927,
      "Ġdoub": 3928,
      "imer": 3929,
      "Ġfunctions": 3930,
      "Ġnegative": 3931,
      "Ġwoman": 3932,
      "While": 3933,
      "iable": 3934,
      "ĠAng": 3935,
      "ĠMus": 3936,
      "Ġexamples": 3937,
      "Ġorganization": 3938,
      "ĠJewish": 3939,
      "Ġunit": 3940,
      "Ġregions": 3941,
      "Ġbenefit": 3942,
      "ham": 3943,
      "iance": 3944,
      "Ġocean": 3945,
      "ĠHere": 3946,
      "Ġassum": 3947,
      "Ġfreed": 3948,
      "Ġexisting": 3949,
      "ĠRel": 3950,
      "igned": 3951,
      "Ġenjoy": 3952,
      "Ġtherapy": 3953,
      "esc": 3954,
      "leg": 3955,
      "enty": 3956,
      "ologist": 3957,
      "Ġfundam": 3958,
      "char": 3959,
      "ously": 3960,
      "ologists": 3961,
      "Ġoverall": 3962,
      "Ġchance": 3963,
      "Ġmedicine": 3964,
      "Ġletter": 3965,
      "Ġsuggests": 3966,
      "Ġcontract": 3967,
      "oviet": 3968,
      "Ġconstruct": 3969,
      "eff": 3970,
      "ygen": 3971,
      "aled": 3972,
      "osy": 3973,
      "essel": 3974,
      "Ġseven": 3975,
      "Ġtrack": 3976,
      "Ġstaff": 3977,
      "ĠInst": 3978,
      "Ġ2004": 3979,
      "Ġmajority": 3980,
      "Ġlimit": 3981,
      "Ġmoved": 3982,
      "ĠGeorge": 3983,
      "Ph": 3984,
      "ĠRef": 3985,
      "ĠCollege": 3986,
      "Ġheavy": 3987,
      "Ġinsect": 3988,
      "roph": 3989,
      "Ġhope": 3990,
      "Ġleave": 3991,
      "ords": 3992,
      "Ġrot": 3993,
      "eared": 3994,
      "Ġtox": 3995,
      "Ġnoted": 3996,
      "rupt": 3997,
      "Ġdevices": 3998,
      "rome": 3999,
      "Ġadm": 4000,
      "phas": 4001,
      "with": 4002,
      "Ġfair": 4003,
      "ica": 4004,
      "Ġstage": 4005,
      "Ġoffers": 4006,
      "Ġdidn": 4007,
      "Ġlegis": 4008,
      "Ġradio": 4009,
      "ĠVirgin": 4010,
      "ĠInter": 4011,
      "Ġrunning": 4012,
      "Ġannual": 4013,
      "Ġdigital": 4014,
      "Ġusers": 4015,
      "Ġpeace": 4016,
      "Ġactions": 4017,
      "Ġforeign": 4018,
      "stitution": 4019,
      "Ġcustom": 4020,
      "Ġbran": 4021,
      "ĠPaul": 4022,
      "Ġincor": 4023,
      "PS": 4024,
      "Ġcop": 4025,
      "ĠMars": 4026,
      "Ġplans": 4027,
      "Ġperfect": 4028,
      "Ġeducational": 4029,
      "Ġstatus": 4030,
      "lease": 4031,
      "ĠTur": 4032,
      "ĠDirect": 4033,
      "ville": 4034,
      "rec": 4035,
      "Ġfresh": 4036,
      "amic": 4037,
      "ĠThen": 4038,
      "ĠFood": 4039,
      "Ġspring": 4040,
      "Ġcolle": 4041,
      "Ġcarried": 4042,
      "Ġsand": 4043,
      "Ġcook": 4044,
      "Ġblue": 4045,
      "pped": 4046,
      "Ġteaching": 4047,
      "Ġthousands": 4048,
      "icip": 4049,
      "Ġrule": 4050,
      "Ġdestroy": 4051,
      "Ġdetails": 4052,
      "Ġoperations": 4053,
      "mark": 4054,
      "astern": 4055,
      "Ġiniti": 4056,
      "ĠDevelopment": 4057,
      "ault": 4058,
      "semb": 4059,
      "abilities": 4060,
      "Ġparty": 4061,
      "Ġpartners": 4062,
      "lick": 4063,
      "Ar": 4064,
      "Ġstro": 4065,
      "Ġdecades": 4066,
      "Ġtub": 4067,
      "Ġbeaut": 4068,
      "ĠEach": 4069,
      "ĠNow": 4070,
      "ĠAdd": 4071,
      "Ġmeeting": 4072,
      "ĠISBN": 4073,
      "Ġshape": 4074,
      "Ġcontext": 4075,
      "uild": 4076,
      "Ġfig": 4077,
      "Ġfigure": 4078,
      "ĠTrans": 4079,
      "Ġperformed": 4080,
      "Ġmotion": 4081,
      "Ġbacteria": 4082,
      "well": 4083,
      "ĠMD": 4084,
      "Ġpoly": 4085,
      "henomen": 4086,
      "Ġbelieved": 4087,
      "Ġmap": 4088,
      "Ġworkers": 4089,
      "ĠArmy": 4090,
      "Ġexplain": 4091,
      "Ġchoose": 4092,
      "Ġabsor": 4093,
      "Ġstra": 4094,
      "Ġimmune": 4095,
      "Ġchoice": 4096,
      "Ġprofessor": 4097,
      "Ġefficient": 4098,
      "Ġvaccine": 4099,
      "Ġextremely": 4100,
      "ager": 4101,
      "Ġsteps": 4102,
      "house": 4103,
      "vision": 4104,
      "Ġconv": 4105,
      "Ġroad": 4106,
      "Ġguid": 4107,
      "Ġwhom": 4108,
      "Ġdistinct": 4109,
      "ĠSoviet": 4110,
      "ĠNews": 4111,
      "Ġmilk": 4112,
      "Ġstories": 4113,
      "Ġpresence": 4114,
      "ĠMexico": 4115,
      "orial": 4116,
      "Ġprocedure": 4117,
      "Ġwest": 4118,
      "ĠPacific": 4119,
      "ĠTheir": 4120,
      "istant": 4121,
      "ensus": 4122,
      "Ġfeature": 4123,
      "Ġemot": 4124,
      "ĠFranc": 4125,
      "rant": 4126,
      "Ġ+": 4127,
      "Ġcand": 4128,
      "Ġmis": 4129,
      "Ġislands": 4130,
      "Ġforward": 4131,
      "ĠPal": 4132,
      "umn": 4133,
      "Ġatoll": 4134,
      "Ġenh": 4135,
      "Ġtreated": 4136,
      "Ġmedications": 4137,
      "Ġfailure": 4138,
      "Ġfields": 4139,
      "ĠIr": 4140,
      "ĠFin": 4141,
      "Ġjournal": 4142,
      "ĠNASA": 4143,
      "respond": 4144,
      "ĠAre": 4145,
      "ĠDar": 4146,
      "ams": 4147,
      "ĠThus": 4148,
      "Ġ2002": 4149,
      "Ġteacher": 4150,
      "Ġwrong": 4151,
      "Ġ2001": 4152,
      "Ġexpand": 4153,
      "Ġflood": 4154,
      "ĠIsland": 4155,
      "Ġeconomy": 4156,
      "Ġintroduced": 4157,
      "Ġfavor": 4158,
      "Ġgard": 4159,
      "Ġupper": 4160,
      "Ġclearly": 4161,
      "Ġobserved": 4162,
      "RI": 4163,
      "oration": 4164,
      "Ġfrequently": 4165,
      "ĠOffice": 4166,
      "Ġbone": 4167,
      "ĠPost": 4168,
      "ĠOur": 4169,
      "Ġpopulations": 4170,
      "Ġconflic": 4171,
      "Ġproperties": 4172,
      "Ġinteresting": 4173,
      "Ġinstrument": 4174,
      "gra": 4175,
      "ii": 4176,
      "Ġpow": 4177,
      "ols": 4178,
      "ĠAut": 4179,
      "ĠDec": 4180,
      "Ġbox": 4181,
      "Ġcollabor": 4182,
      "Ġevalu": 4183,
      "Ġapproximately": 4184,
      "gl": 4185,
      "rition": 4186,
      "Ġantib": 4187,
      "ographic": 4188,
      "Ġhousehold": 4189,
      "35": 4190,
      "Ġtou": 4191,
      "Ġfoss": 4192,
      "Ġdatabase": 4193,
      "Ġphase": 4194,
      "Ġhighest": 4195,
      "Ġmouth": 4196,
      "ender": 4197,
      "Ġreprodu": 4198,
      "Ġprofessional": 4199,
      "Ġgiving": 4200,
      "ĠAir": 4201,
      "Ġexperien": 4202,
      "Ġpowerful": 4203,
      "Ġelectricity": 4204,
      "ĠAustralia": 4205,
      "Ġurban": 4206,
      "Ġbodies": 4207,
      "Ġrat": 4208,
      "Ġrich": 4209,
      "ĠGreek": 4210,
      "Ġrelease": 4211,
      "Ġreleased": 4212,
      "78": 4213,
      "Ġmax": 4214,
      "Ġeventually": 4215,
      "Ġmaintain": 4216,
      "odes": 4217,
      "ĠMedicine": 4218,
      "ht": 4219,
      "Ġpiece": 4220,
      "Ġsave": 4221,
      "related": 4222,
      "Ġexpress": 4223,
      "Ġlanguages": 4224,
      "Ġfarmers": 4225,
      "ĠTex": 4226,
      "ĠBlack": 4227,
      "Ġwond": 4228,
      "change": 4229,
      "iring": 4230,
      "Ġpul": 4231,
      "Ġbank": 4232,
      "Ġstyle": 4233,
      "Ġvessel": 4234,
      "Ġdrive": 4235,
      "Ġclinical": 4236,
      "atically": 4237,
      "Ġstar": 4238,
      "Ġ80": 4239,
      "cers": 4240,
      "that": 4241,
      "ĠDem": 4242,
      "Ġserve": 4243,
      "CO": 4244,
      "rest": 4245,
      "Ġisn": 4246,
      "urrent": 4247,
      "Ġoxygen": 4248,
      "ĠHuman": 4249,
      "Ġking": 4250,
      "Ġresource": 4251,
      "Ġemissions": 4252,
      "Ġexperiment": 4253,
      "Ġatmosphere": 4254,
      "west": 4255,
      "Ġdivid": 4256,
      "Ġgir": 4257,
      "Ġkid": 4258,
      "Ġtradition": 4259,
      "Ġdisorders": 4260,
      "rust": 4261,
      "ĠUse": 4262,
      "ĠGermany": 4263,
      "Ġfruit": 4264,
      "45": 4265,
      "Ġwestern": 4266,
      "ĠEv": 4267,
      "Ġtransfer": 4268,
      "ĠCommission": 4269,
      "Ġimmediately": 4270,
      "ĠMat": 4271,
      "Ġtemperatures": 4272,
      "US": 4273,
      "Ġcovered": 4274,
      "Ġfully": 4275,
      "Ġnotes": 4276,
      "Ġsuppl": 4277,
      "Ġbreast": 4278,
      "road": 4279,
      "ĠMiss": 4280,
      "aped": 4281,
      "RE": 4282,
      "Ġmal": 4283,
      "Ġvia": 4284,
      "Ġemail": 4285,
      "Ġfriend": 4286,
      "Ġpages": 4287,
      "othes": 4288,
      "ĠOb": 4289,
      "Ġremember": 4290,
      "ĠProject": 4291,
      "Ġcharacteristics": 4292,
      "ĠInformation": 4293,
      "fl": 4294,
      "Ġtrib": 4295,
      "Ġhear": 4296,
      "ĠVal": 4297,
      "Ġfactor": 4298,
      "Ġeveryone": 4299,
      "Ġvisual": 4300,
      "Ġbuildings": 4301,
      "RO": 4302,
      "Ġgene": 4303,
      "Ġbird": 4304,
      "Ġâ": 4305,
      "Ġstream": 4306,
      "ĠThomas": 4307,
      "Ġelev": 4308,
      "Ġbehavi": 4309,
      "Ġeast": 4310,
      "ĠSpanish": 4311,
      "ux": 4312,
      "otes": 4313,
      "ĠMark": 4314,
      "ĠDon": 4315,
      "Ġcomponents": 4316,
      "Ġtissue": 4317,
      "75": 4318,
      "rus": 4319,
      "Ġcore": 4320,
      "essor": 4321,
      "Ġrisks": 4322,
      "Ġcharge": 4323,
      "Ġindustrial": 4324,
      "rum": 4325,
      "Ġcamer": 4326,
      "Ġdram": 4327,
      "Ġoutput": 4328,
      "porary": 4329,
      "Ġparticipants": 4330,
      "Ġpray": 4331,
      "arrow": 4332,
      "Ġcontrast": 4333,
      "Ġreefs": 4334,
      "Ġestimated": 4335,
      "hma": 4336,
      "yd": 4337,
      "ato": 4338,
      "Ġcomplic": 4339,
      "apers": 4340,
      "Ġconsumption": 4341,
      "Ġreaction": 4342,
      "Ġbaby": 4343,
      "Ġcru": 4344,
      "Ġthick": 4345,
      "Ġstim": 4346,
      "Ġinform": 4347,
      "ĠJapanese": 4348,
      "Ġwet": 4349,
      "ishes": 4350,
      "Ġgraph": 4351,
      "Ġcampaign": 4352,
      "isher": 4353,
      "Ġbul": 4354,
      "ogen": 4355,
      "Ġactual": 4356,
      "ĠAtl": 4357,
      "Ġsamples": 4358,
      "____": 4359,
      "Ġinnov": 4360,
      "ped": 4361,
      "Ġfit": 4362,
      "ifically": 4363,
      "Ġalg": 4364,
      "umber": 4365,
      "Ġunf": 4366,
      "Ġcycle": 4367,
      "zz": 4368,
      "ndrome": 4369,
      "ĠHall": 4370,
      "Ġminor": 4371,
      "board": 4372,
      "Ġsav": 4373,
      "Ġemphas": 4374,
      "Ġdefic": 4375,
      "Ġvolume": 4376,
      "aus": 4377,
      "uing": 4378,
      "Ġtask": 4379,
      "Ġround": 4380,
      "rick": 4381,
      "Ġconservation": 4382,
      "Ġnoise": 4383,
      "Ġinstruct": 4384,
      "Ġlib": 4385,
      "ander": 4386,
      "Ġunivers": 4387,
      "Ġsigns": 4388,
      "Ġwanted": 4389,
      "Ġauthority": 4390,
      "Ġturned": 4391,
      "Res": 4392,
      "Ġburn": 4393,
      "Ġhour": 4394,
      "Ġincome": 4395,
      "That": 4396,
      "ĠCarol": 4397,
      "Ġreligion": 4398,
      "Ġpatterns": 4399,
      "ĠNet": 4400,
      "ĠNav": 4401,
      "Ġguide": 4402,
      "Ġmag": 4403,
      "Ġsitu": 4404,
      "Ġsustainable": 4405,
      "ĠRobert": 4406,
      "Ġreached": 4407,
      "ĠPhys": 4408,
      "Ġmoment": 4409,
      "enge": 4410,
      "Ġcities": 4411,
      "eces": 4412,
      "Ġmer": 4413,
      "Ġhospital": 4414,
      "ĠBra": 4415,
      "aker": 4416,
      "Ġteach": 4417,
      "Ġinstall": 4418,
      "Ġmob": 4419,
      "ios": 4420,
      "olute": 4421,
      "ĠMac": 4422,
      "efore": 4423,
      "ĠSpace": 4424,
      "Ġserved": 4425,
      "Ġoperation": 4426,
      "Ġdiscussion": 4427,
      "Ġprinciples": 4428,
      "ĠJews": 4429,
      "Ġindependent": 4430,
      "ĠLord": 4431,
      "which": 4432,
      "Ġrequirements": 4433,
      "Ġliterature": 4434,
      "Ġreferred": 4435,
      "gypt": 4436,
      "33": 4437,
      "ĠCivil": 4438,
      "Ġchief": 4439,
      "anging": 4440,
      "ĠCentral": 4441,
      "Ġmessage": 4442,
      "Ġfinancial": 4443,
      "After": 4444,
      "ĠFlor": 4445,
      "ĠLear": 4446,
      "Ġopin": 4447,
      "Ġconducted": 4448,
      "ias": 4449,
      "Ġign": 4450,
      "berg": 4451,
      "Ġconfirm": 4452,
      "Ġcombination": 4453,
      "Ġinternal": 4454,
      "Ġhop": 4455,
      "olved": 4456,
      "ĠMass": 4457,
      "Ġcomment": 4458,
      "Ġattract": 4459,
      "Ġdecisions": 4460,
      "Ġelectrical": 4461,
      "Ġorganizations": 4462,
      "Ġproposed": 4463,
      "ĠFore": 4464,
      "ĠGra": 4465,
      "Ġspeech": 4466,
      "Ġworth": 4467,
      "Ġinfections": 4468,
      "Ġacadem": 4469,
      "Ġdepth": 4470,
      "Ġemergency": 4471,
      "Ġopportunity": 4472,
      "order": 4473,
      "Ġfinding": 4474,
      "Ġcrops": 4475,
      "kin": 4476,
      "ta": 4477,
      "Ġhomes": 4478,
      "Ġkilled": 4479,
      "Ġsecret": 4480,
      "Ġfamous": 4481,
      "part": 4482,
      "raction": 4483,
      "ĠDiv": 4484,
      "force": 4485,
      "Ġinitial": 4486,
      "89": 4487,
      "crib": 4488,
      "Ġsed": 4489,
      "Ġitems": 4490,
      "Ġcomprehens": 4491,
      "Ġhyper": 4492,
      "onic": 4493,
      "Ġgrand": 4494,
      "oyal": 4495,
      "Ġarchitect": 4496,
      "Ġremoved": 4497,
      "ĠChildren": 4498,
      "des": 4499,
      "Ġtrou": 4500,
      "itors": 4501,
      "ching": 4502,
      "ĠRich": 4503,
      "ributed": 4504,
      "Ġplease": 4505,
      "Ġcitizens": 4506,
      "Ġarr": 4507,
      "med": 4508,
      "oice": 4509,
      "Ġwin": 4510,
      "Ġdetect": 4511,
      "Ġ70": 4512,
      "ĠCompany": 4513,
      "Ġfert": 4514,
      "rog": 4515,
      "ĠOver": 4516,
      "Ġ35": 4517,
      "isp": 4518,
      "Ġreality": 4519,
      "uration": 4520,
      "ĠST": 4521,
      "ĠHen": 4522,
      "Ġemp": 4523,
      "Ġsolid": 4524,
      "iveness": 4525,
      "Ġwidely": 4526,
      "ĠWindows": 4527,
      "Ġfreedom": 4528,
      "Ġfear": 4529,
      "Ġalt": 4530,
      "Ġheight": 4531,
      "Ġvary": 4532,
      "ĠWhy": 4533,
      "ĠAN": 4534,
      "Ġconvers": 4535,
      "ĠVirginia": 4536,
      "Ġapply": 4537,
      "Ġbecoming": 4538,
      "Ġliquid": 4539,
      "ĠSal": 4540,
      "Ġelim": 4541,
      "Ġdiagnosis": 4542,
      "Ġbed": 4543,
      "Ġmathemat": 4544,
      "Ġpreviously": 4545,
      "Ġeggs": 4546,
      "Ġhuge": 4547,
      "ĠSun": 4548,
      "oper": 4549,
      "Ġcorrespond": 4550,
      "Ġstarting": 4551,
      "Ġlung": 4552,
      "Ġyourself": 4553,
      "Ġcollege": 4554,
      "Ġdirector": 4555,
      "wood": 4556,
      "Ġclick": 4557,
      "Ġappoint": 4558,
      "Ġexposed": 4559,
      "Ġgets": 4560,
      "Ġstructures": 4561,
      "CS": 4562,
      "Ġcompl": 4563,
      "ĠEgypt": 4564,
      "Ġship": 4565,
      "ĠFoundation": 4566,
      "Con": 4567,
      "Ġlearned": 4568,
      "Ġsignificantly": 4569,
      "Ġcircum": 4570,
      "Ġexactly": 4571,
      "ael": 4572,
      "oured": 4573,
      "Ġgall": 4574,
      "unction": 4575,
      "Ġqual": 4576,
      "Ġquar": 4577,
      "Ġtechnologies": 4578,
      "zhe": 4579,
      "ĠLou": 4580,
      "ĠReview": 4581,
      "lar": 4582,
      "Ġtro": 4583,
      "Ġcere": 4584,
      "lements": 4585,
      "Ġisol": 4586,
      "Ġgain": 4587,
      "riage": 4588,
      "Ġhair": 4589,
      "ĠLibrary": 4590,
      "Ġsupported": 4591,
      "itage": 4592,
      "Ġresolution": 4593,
      "Ġboard": 4594,
      "Ġvolunt": 4595,
      "oo": 4596,
      "ĠLatin": 4597,
      "Ġconclud": 4598,
      "Ġstrength": 4599,
      "ĠTexas": 4600,
      "ares": 4601,
      "rations": 4602,
      "ship": 4603,
      "orage": 4604,
      "Ġmig": 4605,
      "Ġneu": 4606,
      "Ġhelped": 4607,
      "Ġhappen": 4608,
      "ses": 4609,
      "uted": 4610,
      "amily": 4611,
      "Ġapparent": 4612,
      "Ġremained": 4613,
      "Ġgreatest": 4614,
      "ao": 4615,
      "tical": 4616,
      "elines": 4617,
      "ĠOld": 4618,
      "ieties": 4619,
      "Ġsubs": 4620,
      "Ġexistence": 4621,
      "Ġofficials": 4622,
      "Ġdoll": 4623,
      "omin": 4624,
      "cycl": 4625,
      "Ġcoord": 4626,
      "Ġexperts": 4627,
      "Ġcontinues": 4628,
      "Ġchanging": 4629,
      "Ġterrit": 4630,
      "Ġfundamental": 4631,
      "osystem": 4632,
      "burg": 4633,
      "Ġ*": 4634,
      "Ġmetal": 4635,
      "Ġfacilities": 4636,
      "Ġpun": 4637,
      "ĠPan": 4638,
      "osen": 4639,
      "ĠDise": 4640,
      "Ġresistance": 4641,
      "Ġmanner": 4642,
      "ÃŃ": 4643,
      "Ġbattle": 4644,
      "Ġexcess": 4645,
      "ĠUp": 4646,
      "Ġclim": 4647,
      "Ġcreation": 4648,
      "Ġwaters": 4649,
      "alle": 4650,
      "isted": 4651,
      "Ġtrend": 4652,
      "36": 4653,
      "care": 4654,
      "cription": 4655,
      "Ġinvent": 4656,
      "Ġstore": 4657,
      "acing": 4658,
      "Ġstatement": 4659,
      "ounced": 4660,
      "Ġbrief": 4661,
      "ormally": 4662,
      "Ġupd": 4663,
      "Ab": 4664,
      "Ġpi": 4665,
      "Ġdie": 4666,
      "iled": 4667,
      "ĠWork": 4668,
      "Ġsignal": 4669,
      "Ġcausing": 4670,
      "Ġmorning": 4671,
      "'m": 4672,
      "ado": 4673,
      "Ġroot": 4674,
      "rows": 4675,
      "Ġbuy": 4676,
      "Ġagricultural": 4677,
      "atric": 4678,
      "Ġbatter": 4679,
      "urning": 4680,
      "Ġmostly": 4681,
      "32": 4682,
      "igen": 4683,
      "Ġseed": 4684,
      "ĠAsia": 4685,
      "Ġ1990": 4686,
      "Ġadvanced": 4687,
      "Ġbiological": 4688,
      "Ġcounter": 4689,
      "zheimer": 4690,
      "tion": 4691,
      "iling": 4692,
      "Ġletters": 4693,
      "Ġfine": 4694,
      "ĠHol": 4695,
      "Ġsuggested": 4696,
      "Ġbra": 4697,
      "ĠMor": 4698,
      "osa": 4699,
      "Ġplat": 4700,
      "Ġoptions": 4701,
      "ij": 4702,
      "Ġpark": 4703,
      "Ġfif": 4704,
      "Ġnan": 4705,
      "Ġintellig": 4706,
      "Ġkept": 4707,
      "ortunately": 4708,
      "].": 4709,
      "iate": 4710,
      "Ġpick": 4711,
      "Ġsufficient": 4712,
      "Ġremove": 4713,
      "Ġcalls": 4714,
      "ocal": 4715,
      "Ġfilm": 4716,
      "Ġmanufacture": 4717,
      "Ġdangerous": 4718,
      "Ġcris": 4719,
      "ĠUnder": 4720,
      "aste": 4721,
      "ception": 4722,
      "Ġplanning": 4723,
      "Ġencourage": 4724,
      "38": 4725,
      "39": 4726,
      "Americ": 4727,
      "roc": 4728,
      "istan": 4729,
      "Ġunits": 4730,
      "Ġ90": 4731,
      "Ġearthqu": 4732,
      "Ġlived": 4733,
      "ĠPort": 4734,
      "ĠEmp": 4735,
      "They": 4736,
      "Ġresulting": 4737,
      "ĠCommittee": 4738,
      "Ġindicate": 4739,
      "Sh": 4740,
      "Ġmere": 4741,
      "ĠLake": 4742,
      "Ġspent": 4743,
      "Ġdetermined": 4744,
      "44": 4745,
      "een": 4746,
      "rem": 4747,
      "utive": 4748,
      "ressive": 4749,
      "Ġexplan": 4750,
      "Although": 4751,
      "Ġvitamin": 4752,
      "Ġstrugg": 4753,
      "Most": 4754,
      "Ġphenomen": 4755,
      "ĠNatural": 4756,
      "Ġleader": 4757,
      "Ġclasses": 4758,
      "Ġperiods": 4759,
      "ĠSou": 4760,
      "athy": 4761,
      "Ġ1999": 4762,
      "Ġgrant": 4763,
      "MS": 4764,
      "Ġinfluen": 4765,
      "Ġregarding": 4766,
      "ĠDarwin": 4767,
      "Ġrenew": 4768,
      "ellect": 4769,
      "ĠMr": 4770,
      "ĠMart": 4771,
      "Is": 4772,
      "ĠChe": 4773,
      "Ġnumerous": 4774,
      "Ġdistingu": 4775,
      "Ġcompleted": 4776,
      "Ġorganisms": 4777,
      "Ġbelong": 4778,
      "Ġserver": 4779,
      "Ġsexual": 4780,
      "Ġreplace": 4781,
      "Ġalternative": 4782,
      "Ġslightly": 4783,
      "htm": 4784,
      "No": 4785,
      "Other": 4786,
      "Ġrace": 4787,
      "Ġanyone": 4788,
      "Ġvision": 4789,
      "Ġcollected": 4790,
      "Ġallerg": 4791,
      "Ġroof": 4792,
      "Ġglass": 4793,
      "Ġfrequency": 4794,
      "osc": 4795,
      "Ġagencies": 4796,
      "Ġoperating": 4797,
      "ĠCharles": 4798,
      "From": 4799,
      "See": 4800,
      "Ġ#": 4801,
      "Ġtour": 4802,
      "ingly": 4803,
      "Ġdyn": 4804,
      "ĠBook": 4805,
      "Ġheard": 4806,
      "Ġintended": 4807,
      "Ġstudied": 4808,
      "Ġstrategies": 4809,
      "lv": 4810,
      "uit": 4811,
      "Ġspot": 4812,
      "ossible": 4813,
      "Ġconnected": 4814,
      "Ġindex": 4815,
      "ĠAlzheimer": 4816,
      "ĠOrgan": 4817,
      "Ġprocedures": 4818,
      "Ġmic": 4819,
      "Ġdrop": 4820,
      "lets": 4821,
      "Ġarticles": 4822,
      "Ġoccurred": 4823,
      "Ġeasier": 4824,
      "Ġprevention": 4825,
      "Ġoption": 4826,
      "ĠDi": 4827,
      "ĠElect": 4828,
      "According": 4829,
      "bed": 4830,
      "ras": 4831,
      "Ġmeant": 4832,
      "ropical": 4833,
      "Ġdecided": 4834,
      "ĠAcadem": 4835,
      "Ġpregnancy": 4836,
      "key": 4837,
      "Ġreturned": 4838,
      "Many": 4839,
      "amil": 4840,
      "Ġpeak": 4841,
      "ĠIts": 4842,
      "Ġ189": 4843,
      "ĠSea": 4844,
      "Ġwww": 4845,
      "Ġbill": 4846,
      "ĠGroup": 4847,
      "Ġcertainly": 4848,
      "Ġcombined": 4849,
      "Ġconnect": 4850,
      "Ġincorpor": 4851,
      ".|": 4852,
      "37": 4853,
      "Ġfib": 4854,
      "Ġthin": 4855,
      "Ġhem": 4856,
      "ria": 4857,
      "Ġtechnique": 4858,
      "Ġreducing": 4859,
      "Ġadvantage": 4860,
      "Ġbright": 4861,
      "ĠSam": 4862,
      "ibet": 4863,
      "Ġsurpris": 4864,
      "Ġparticles": 4865,
      "HO": 4866,
      "iology": 4867,
      "ortion": 4868,
      "iot": 4869,
      "Ġenem": 4870,
      "ĠJer": 4871,
      "Ġotherwise": 4872,
      "Ġarmy": 4873,
      "Ġplayed": 4874,
      "Ġimproved": 4875,
      "Ġkinds": 4876,
      "unk": 4877,
      "Ġweak": 4878,
      "ĠJose": 4879,
      "Ġobvious": 4880,
      "Ġsort": 4881,
      "Ġsnow": 4882,
      "Ġhearing": 4883,
      "Ġchart": 4884,
      "plant": 4885,
      "rosc": 4886,
      "Ġconcern": 4887,
      "Ġchemicals": 4888,
      "Ġdefinition": 4889,
      "Ġcolleag": 4890,
      "Ġmo": 4891,
      "ĠArab": 4892,
      "Ġseeds": 4893,
      "hetic": 4894,
      "Ġpollution": 4895,
      "Ġaspects": 4896,
      "Ġban": 4897,
      "ĠMal": 4898,
      "ĠWild": 4899,
      "ĠStand": 4900,
      "Ġextent": 4901,
      "ĠHistor": 4902,
      "48": 4903,
      "AP": 4904,
      "do": 4905,
      "Ġinput": 4906,
      "Ġchann": 4907,
      "ĠLa": 4908,
      "ĠFlorida": 4909,
      "mod": 4910,
      "Ġpal": 4911,
      "Ġdial": 4912,
      "ĠLet": 4913,
      "rence": 4914,
      "Ġadvance": 4915,
      "Ġmarine": 4916,
      "Ġinterested": 4917,
      "ION": 4918,
      "Ġaid": 4919,
      "ĠSen": 4920,
      "Ġformation": 4921,
      "Ġrecognized": 4922,
      "onia": 4923,
      "Ġgod": 4924,
      "stronom": 4925,
      "ixt": 4926,
      "Ġdistrict": 4927,
      "ackson": 4928,
      "Ġdrinking": 4929,
      "cyclop": 4930,
      "Ġnarrow": 4931,
      "iful": 4932,
      "Ġdisapp": 4933,
      "Ġclos": 4934,
      "Ġunderst": 4935,
      "Ġharvest": 4936,
      "Ġdivided": 4937,
      "Ġmort": 4938,
      "Ġfort": 4939,
      "Ġready": 4940,
      "Ġproperly": 4941,
      "Ġcomponent": 4942,
      "100": 4943,
      "ball": 4944,
      "cript": 4945,
      "resents": 4946,
      "Ġdiss": 4947,
      "Ġpersons": 4948,
      "ĠColumb": 4949,
      "Ġinvolve": 4950,
      "Ġsubjects": 4951,
      "cular": 4952,
      "omy": 4953,
      "erences": 4954,
      "Ġprepar": 4955,
      "Ġappeared": 4956,
      "Ġtrig": 4957,
      "Ġinterview": 4958,
      "ĠWhite": 4959,
      "Ġsaying": 4960,
      "Ġdescribe": 4961,
      "Ġclosely": 4962,
      "Ġrecommended": 4963,
      "Ġdouble": 4964,
      "Ġrapidly": 4965,
      "Ġasthma": 4966,
      "Ġmedication": 4967,
      "ĠSocial": 4968,
      "Ġprinciple": 4969,
      "ĠEnvironmental": 4970,
      "Ġstroke": 4971,
      "level": 4972,
      "Ġinfl": 4973,
      "Ġagg": 4974,
      "spec": 4975,
      "onomic": 4976,
      "Ġreduction": 4977,
      "Ġnutri": 4978,
      "Ġproteins": 4979,
      "Ġadjust": 4980,
      "76": 4981,
      "Ġband": 4982,
      "Ġstorm": 4983,
      "ĠHel": 4984,
      "ĠTechnology": 4985,
      "DF": 4986,
      "Ġbio": 4987,
      "urric": 4988,
      "ĠAp": 4989,
      "add": 4990,
      "akers": 4991,
      "Ġscen": 4992,
      "col": 4993,
      "nic": 4994,
      "Ġwife": 4995,
      "ĠTest": 4996,
      "Ġkn": 4997,
      "Ġsynt": 4998,
      "Ġaccomp": 4999,
      "Ġexpression": 5000,
      "anguage": 5001,
      "Ġmentioned": 5002,
      "bing": 5003,
      "mail": 5004,
      "Ġnations": 5005,
      "Ġstation": 5006,
      "ĠConstitution": 5007,
      "Ġbalance": 5008,
      "body": 5009,
      "works": 5010,
      "ĠSub": 5011,
      "ĠPenn": 5012,
      "Ġchain": 5013,
      "Ġexplained": 5014,
      "Ġimmig": 5015,
      "Ġopportunities": 5016,
      "normal": 5017,
      "inating": 5018,
      "ĠBoth": 5019,
      "Ġcomfort": 5020,
      "ishing": 5021,
      "Ġconsult": 5022,
      "Ġfiles": 5023,
      "Ġlinked": 5024,
      "Ġinstruments": 5025,
      "born": 5026,
      "ota": 5027,
      "ĠImp": 5028,
      "ĠOp": 5029,
      "aph": 5030,
      "Ġbackground": 5031,
      "Ġmeasured": 5032,
      "Ġfeeling": 5033,
      "Ġtitle": 5034,
      "Ġchallenges": 5035,
      "iated": 5036,
      "ĠAD": 5037,
      "Ġvul": 5038,
      "Ġfollows": 5039,
      "ructure": 5040,
      "Ġadvice": 5041,
      "Ġcapable": 5042,
      "Ġcalc": 5043,
      "vis": 5044,
      "Ġinh": 5045,
      "ilit": 5046,
      "Ġshar": 5047,
      "Ġsyndrome": 5048,
      "Ġraised": 5049,
      "what": 5050,
      "ĠLouis": 5051,
      "500": 5052,
      "ĠLabor": 5053,
      "ĠSte": 5054,
      "Ġ31": 5055,
      "Ġroll": 5056,
      "Ġsetting": 5057,
      "Ġfacts": 5058,
      "Ġtechnical": 5059,
      "Ġexplore": 5060,
      "Ġamounts": 5061,
      "ĠBritain": 5062,
      "ĠSmith": 5063,
      "point": 5064,
      "Ġconver": 5065,
      "Ġcoal": 5066,
      "Ġtransl": 5067,
      "Ġprocessing": 5068,
      "Ġpaint": 5069,
      "Ġconcerns": 5070,
      "down": 5071,
      "ya": 5072,
      "Ġsong": 5073,
      "place": 5074,
      "oughly": 5075,
      "Ġremark": 5076,
      "kins": 5077,
      "mal": 5078,
      "och": 5079,
      "Ġlibrary": 5080,
      "Ġstone": 5081,
      "ulin": 5082,
      "Ġknew": 5083,
      "Ġclaims": 5084,
      "86": 5085,
      "bal": 5086,
      "pat": 5087,
      "uels": 5088,
      "Ġpolicies": 5089,
      "Ġargument": 5090,
      "Ġdogs": 5091,
      "Now": 5092,
      "mas": 5093,
      "terol": 5094,
      "ĠLife": 5095,
      "Ġconsists": 5096,
      "Ġtested": 5097,
      "Ġecosystem": 5098,
      "Ġload": 5099,
      "Ġlooks": 5100,
      "Ġdocuments": 5101,
      "li": 5102,
      "Ġsides": 5103,
      "Ġconvent": 5104,
      "ĠRem": 5105,
      "ĠOnce": 5106,
      "Ġoriginally": 5107,
      "Ġlatest": 5108,
      "Ġmel": 5109,
      "Ġrural": 5110,
      "Ġtried": 5111,
      "Ġabsolute": 5112,
      "Ġneighbor": 5113,
      "47": 5114,
      "Ġbud": 5115,
      "inger": 5116,
      "ament": 5117,
      "ulating": 5118,
      "Ġrand": 5119,
      "Ġoffered": 5120,
      "Ġviews": 5121,
      "Ġhappens": 5122,
      "Ġprofession": 5123,
      "Ġprepared": 5124,
      "rich": 5125,
      "Ġsen": 5126,
      "Ġstorage": 5127,
      "eline": 5128,
      "Ġprefer": 5129,
      "iox": 5130,
      "Ġvictim": 5131,
      "Ġrandom": 5132,
      "cest": 5133,
      "chers": 5134,
      "tes": 5135,
      "Äģ": 5136,
      "ĠMem": 5137,
      "Ġexcell": 5138,
      "pping": 5139,
      "active": 5140,
      "Ġshowing": 5141,
      "isco": 5142,
      "Ġselected": 5143,
      "dden": 5144,
      "OT": 5145,
      "gment": 5146,
      "ĠUK": 5147,
      "anges": 5148,
      "Ġtransform": 5149,
      "Ġeastern": 5150,
      "Ġresponsibility": 5151,
      "cules": 5152,
      "31": 5153,
      "49": 5154,
      "Ġdro": 5155,
      "ĠBay": 5156,
      "ĠManagement": 5157,
      "Ġchallenge": 5158,
      "ĠSecret": 5159,
      "ping": 5160,
      "Ġcra": 5161,
      "example": 5162,
      "za": 5163,
      "Ġrepresents": 5164,
      "Ġrecorded": 5165,
      "Ġfinally": 5166,
      "Ġsquare": 5167,
      "Sp": 5168,
      "ĠTibet": 5169,
      "iders": 5170,
      "ĠPers": 5171,
      "ĠOh": 5172,
      "Ġperman": 5173,
      "Ġmyth": 5174,
      "ĠTherefore": 5175,
      "Pl": 5176,
      "no": 5177,
      "indu": 5178,
      "ctor": 5179,
      "Ġreb": 5180,
      "ĠTem": 5181,
      "ĠOF": 5182,
      "ĠJackson": 5183,
      "Ġbegins": 5184,
      "55": 5185,
      "free": 5186,
      "Ġinject": 5187,
      "Ġlit": 5188,
      "celer": 5189,
      "Ġsudden": 5190,
      "Ġconnection": 5191,
      "olesterol": 5192,
      "ometimes": 5193,
      "osite": 5194,
      "Ġpret": 5195,
      "Ġcenturies": 5196,
      "Ġorganic": 5197,
      "Ġmuscle": 5198,
      "Ġdoctors": 5199,
      "Ġpil": 5200,
      "alse": 5201,
      "ĠKen": 5202,
      "Ġdetailed": 5203,
      "Ġdepends": 5204,
      "Ġstring": 5205,
      "ait": 5206,
      "mit": 5207,
      "Ġfiber": 5208,
      "Ġvast": 5209,
      "Ġfluid": 5210,
      "Ġstrategy": 5211,
      "Ġpieces": 5212,
      "Ġfrag": 5213,
      "olid": 5214,
      "ĠBel": 5215,
      "ĠBank": 5216,
      "Ġinches": 5217,
      "Ġevil": 5218,
      "Ġsyn": 5219,
      "Ġgrown": 5220,
      "Ġclassroom": 5221,
      "standing": 5222,
      "Ġwalls": 5223,
      "Ġagriculture": 5224,
      "Ġadopted": 5225,
      "Be": 5226,
      "Ġsalt": 5227,
      "Ġlas": 5228,
      "Ġyellow": 5229,
      "ested": 5230,
      "inding": 5231,
      "Ġpromote": 5232,
      "Ġwarming": 5233,
      "ĠHenry": 5234,
      "asure": 5235,
      "Ġflight": 5236,
      "Ġperspect": 5237,
      "Ġtypical": 5238,
      "rison": 5239,
      "Ġtrial": 5240,
      "Ġcardi": 5241,
      "AM": 5242,
      "Ġdu": 5243,
      "Ġlatter": 5244,
      "verty": 5245,
      "Ġproducing": 5246,
      "Ġamb": 5247,
      "Ġpoverty": 5248,
      "Ġ1997": 5249,
      "ifying": 5250,
      "Ġprimarily": 5251,
      "Ġportion": 5252,
      "Ġinstitutions": 5253,
      "Here": 5254,
      "ules": 5255,
      "ĠMil": 5256,
      "ework": 5257,
      "Ġdepending": 5258,
      "sylv": 5259,
      "Ġrelevant": 5260,
      "Ġerror": 5261,
      "Ġsurrounding": 5262,
      "ees": 5263,
      "ona": 5264,
      "ulum": 5265,
      "ĠOx": 5266,
      "ava": 5267,
      "Ġpurposes": 5268,
      "Ġsatis": 5269,
      "Ġhabitat": 5270,
      "inet": 5271,
      "ĠMiddle": 5272,
      "Ġintellect": 5273,
      "apes": 5274,
      "Ġmainly": 5275,
      "aughter": 5276,
      "Ġexperienced": 5277,
      "Ġ>": 5278,
      "olf": 5279,
      "ĠTHE": 5280,
      "racy": 5281,
      "Ġscript": 5282,
      "Ġnovel": 5283,
      "Ġsounds": 5284,
      "65": 5285,
      "rep": 5286,
      "ĠDef": 5287,
      "Ġnotice": 5288,
      "Ġlargely": 5289,
      "Ġpotentially": 5290,
      "Ġtoxic": 5291,
      "ĠCarolina": 5292,
      "Ġcup": 5293,
      "oting": 5294,
      "ĠCD": 5295,
      "ĠBas": 5296,
      "ĠDan": 5297,
      "acters": 5298,
      "Ġinfected": 5299,
      "oking": 5300,
      "Ġprison": 5301,
      "Ġdiscover": 5302,
      "Ġcontinuous": 5303,
      "Ġdescription": 5304,
      "Ġengineering": 5305,
      "Ġspl": 5306,
      "ĠScient": 5307,
      "Ġaccurate": 5308,
      "ey": 5309,
      "Ġdut": 5310,
      "Ġchapter": 5311,
      "Ġlooked": 5312,
      "Ġdeaths": 5313,
      "ua": 5314,
      "Ġgames": 5315,
      "Ġgrade": 5316,
      "Ġexperiences": 5317,
      "Ġefficiency": 5318,
      "field": 5319,
      "rete": 5320,
      "atever": 5321,
      "ĠBer": 5322,
      "Ġindeed": 5323,
      "Ġleads": 5324,
      "Ġrepresented": 5325,
      "Ġrevolution": 5326,
      "IDS": 5327,
      "Ġmist": 5328,
      "ĠAlex": 5329,
      "Ġstored": 5330,
      "Ġanx": 5331,
      "ĠWell": 5332,
      "Ġsubsequ": 5333,
      "hips": 5334,
      "Ġvolcan": 5335,
      "Ġlisted": 5336,
      "Ġsequence": 5337,
      "last": 5338,
      "ĠSum": 5339,
      "ĠMet": 5340,
      "Ġgoods": 5341,
      "Ġtemple": 5342,
      "Ġallowing": 5343,
      "ĠServices": 5344,
      "Ġassessment": 5345,
      "Ġmountain": 5346,
      "Cont": 5347,
      "De": 5348,
      "fall": 5349,
      "Ġsick": 5350,
      "ĠIN": 5351,
      "Ġstret": 5352,
      "ifies": 5353,
      "Ġkill": 5354,
      "lers": 5355,
      "isation": 5356,
      "Ġpure": 5357,
      "Ġlinks": 5358,
      "Ġforced": 5359,
      "Ġregional": 5360,
      "Ġsolutions": 5361,
      "ipped": 5362,
      "Ġsubstant": 5363,
      "Ġstraight": 5364,
      "long": 5365,
      "Ġsin": 5366,
      "omic": 5367,
      "Ġplastic": 5368,
      "Ġpoet": 5369,
      "Ġfloor": 5370,
      "Ġdepression": 5371,
      "Ġowners": 5372,
      "Ġimpacts": 5373,
      "Ġgrass": 5374,
      "ĠStudents": 5375,
      "ĠControl": 5376,
      "Ġmolecules": 5377,
      "Ġcandid": 5378,
      "85": 5379,
      "Ġfly": 5380,
      "Ġhit": 5381,
      "Ġkm": 5382,
      "Ġextensive": 5383,
      "zing": 5384,
      "ĠTreat": 5385,
      "Ġstem": 5386,
      "iform": 5387,
      "ĠHoly": 5388,
      "ĠJud": 5389,
      "Ġgoals": 5390,
      "Ġhighlight": 5391,
      "Ġcorpor": 5392,
      "Ġtopic": 5393,
      "Ġlayer": 5394,
      "Ġestimates": 5395,
      "ĠEmpire": 5396,
      "ga": 5397,
      "such": 5398,
      "ĠPub": 5399,
      "Ġmeat": 5400,
      "Ġpref": 5401,
      "Ġnewsp": 5402,
      "ĠSpirit": 5403,
      "Ġcharacters": 5404,
      "Ġ1998": 5405,
      "going": 5406,
      "Ġcomprehensive": 5407,
      "ĠSouthern": 5408,
      "Ġdespite": 5409,
      "Ġcomputers": 5410,
      "prise": 5411,
      "ĠSecond": 5412,
      "Ġmillions": 5413,
      "called": 5414,
      "ek": 5415,
      "Ġfle": 5416,
      "Ġfelt": 5417,
      "ĠToday": 5418,
      "ĠCamb": 5419,
      "osal": 5420,
      "Ġcloth": 5421,
      "cyclopedia": 5422,
      "BC": 5423,
      "Ġsector": 5424,
      "Ġcert": 5425,
      "itness": 5426,
      "adian": 5427,
      "Ġvent": 5428,
      "Ġrecognize": 5429,
      "Ġconsequences": 5430,
      "sylvania": 5431,
      "ĠTwo": 5432,
      "ĠDisc": 5433,
      "Ġresidents": 5434,
      "Ġentirely": 5435,
      "Ġsend": 5436,
      "ĠEvery": 5437,
      "Ġchronic": 5438,
      "Ġvisible": 5439,
      "comp": 5440,
      "Ġ1980": 5441,
      "Ġgarden": 5442,
      "46": 5443,
      "ĠIll": 5444,
      "ĠDel": 5445,
      "Ġscan": 5446,
      "ĠVis": 5447,
      "Ġhappened": 5448,
      "Ġcritic": 5449,
      "Ġacademic": 5450,
      "Ġcircumst": 5451,
      "net": 5452,
      "umes": 5453,
      "ĠNature": 5454,
      "Ġcontaining": 5455,
      "Ġinvolves": 5456,
      "Ġmoral": 5457,
      "Ġlabel": 5458,
      "Ġgar": 5459,
      "Ġcontribute": 5460,
      "ĠViet": 5461,
      "Ġcrisis": 5462,
      "from": 5463,
      "kes": 5464,
      "Ġax": 5465,
      "Ġwaves": 5466,
      "icago": 5467,
      "Ġuniverse": 5468,
      "Ġpractical": 5469,
      "Ġfocused": 5470,
      "Ġvulner": 5471,
      "Re": 5472,
      "rovers": 5473,
      "ĠPri": 5474,
      "ĠNations": 5475,
      "Ġfamiliar": 5476,
      "Ġprecise": 5477,
      "Ġhoriz": 5478,
      "ocratic": 5479,
      "CC": 5480,
      "More": 5481,
      "Ġimpossible": 5482,
      "Ġflag": 5483,
      "Ġcredit": 5484,
      "eters": 5485,
      "ĠBen": 5486,
      "ocol": 5487,
      "Ġcontem": 5488,
      "enses": 5489,
      "Ġ300": 5490,
      "Ġconcerned": 5491,
      "ING": 5492,
      "Ġspiritual": 5493,
      "Ġconflict": 5494,
      "faces": 5495,
      "Ġble": 5496,
      "Ġfol": 5497,
      "Ġexternal": 5498,
      "ĠWil": 5499,
      "Ġunknown": 5500,
      "Ġagency": 5501,
      "Ġchildhood": 5502,
      "Ġdiscovery": 5503,
      "Ġseek": 5504,
      "Ġviolence": 5505,
      "Ġobtained": 5506,
      "Ġsymbol": 5507,
      "oln": 5508,
      "ĠHome": 5509,
      "ĠDist": 5510,
      "Ġchrom": 5511,
      "clusion": 5512,
      "Ġaircraft": 5513,
      "ĠStudies": 5514,
      "Ġhouses": 5515,
      "Sc": 5516,
      "Se": 5517,
      "inction": 5518,
      "Ġmoon": 5519,
      "olars": 5520,
      "ĠData": 5521,
      "Ġjour": 5522,
      "Ġkeeping": 5523,
      "Ġdoubt": 5524,
      "Â®": 5525,
      "Ġreject": 5526,
      "emic": 5527,
      "Ġdomestic": 5528,
      "Ġutil": 5529,
      "Ġadministration": 5530,
      "Ġcolleagues": 5531,
      "?\"": 5532,
      "stream": 5533,
      "ĠTer": 5534,
      "ĠPsych": 5535,
      "osm": 5536,
      "oston": 5537,
      "Ġcounty": 5538,
      "Ġshell": 5539,
      "Ġexplains": 5540,
      "Ġelectron": 5541,
      "Ġprincip": 5542,
      "Ġhundreds": 5543,
      "Ġlaboratory": 5544,
      "Ġdecrease": 5545,
      "omach": 5546,
      "stone": 5547,
      "Ġsets": 5548,
      "Ġphilosophy": 5549,
      "ĠDisease": 5550,
      "under": 5551,
      "orith": 5552,
      "Ġhom": 5553,
      "Ġliver": 5554,
      "ective": 5555,
      "ĠRights": 5556,
      "Ġcholesterol": 5557,
      "Ġtreatments": 5558,
      "Ġfunding": 5559,
      "UN": 5560,
      "Ġfaster": 5561,
      "Ġmaster": 5562,
      "Ġhorm": 5563,
      "Ġnav": 5564,
      "Ġabund": 5565,
      "Ġtwice": 5566,
      "Ġeffectively": 5567,
      "bran": 5568,
      "nel": 5569,
      "icial": 5570,
      "Ġstated": 5571,
      "Ġunless": 5572,
      "Ġrail": 5573,
      "Ġflat": 5574,
      "Ġbrother": 5575,
      "Ġwindow": 5576,
      "Our": 5577,
      "Ġpaid": 5578,
      "ĠLike": 5579,
      "Ġideal": 5580,
      "Ġbarrier": 5581,
      "Ġaccepted": 5582,
      "Ġcamera": 5583,
      "hn": 5584,
      "Ġther": 5585,
      "eria": 5586,
      "Ġphone": 5587,
      "Ġhelping": 5588,
      "ĠGeorg": 5589,
      "However": 5590,
      "Ġfossil": 5591,
      "ĠPennsylvania": 5592,
      "AD": 5593,
      "lig": 5594,
      "heast": 5595,
      "Ġstock": 5596,
      "ĠMicro": 5597,
      "Ġyouth": 5598,
      "ĠRad": 5599,
      "Ġconscious": 5600,
      "Ġspeaking": 5601,
      "uable": 5602,
      "inf": 5603,
      "Ġwave": 5604,
      "Ġdedic": 5605,
      "Ġstars": 5606,
      "Ġbroken": 5607,
      "Ġvegetables": 5608,
      "Ġwonder": 5609,
      "Last": 5610,
      "edu": 5611,
      "ocracy": 5612,
      "ails": 5613,
      "oven": 5614,
      "Ġworldwide": 5615,
      "Ġdescribes": 5616,
      "rants": 5617,
      "Ġ<": 5618,
      "ican": 5619,
      "Ġnormally": 5620,
      "ĠWomen": 5621,
      "ĠLong": 5622,
      "Ġadequ": 5623,
      "âĢĿ.": 5624,
      "Ġexpert": 5625,
      "Ġadvoc": 5626,
      "rin": 5627,
      "asks": 5628,
      "Ġplate": 5629,
      "Ġkil": 5630,
      "Ġmanage": 5631,
      "Ġ45": 5632,
      "la": 5633,
      "ario": 5634,
      "ĠRock": 5635,
      "Ġgenerate": 5636,
      "Ġplaying": 5637,
      "ĠRussian": 5638,
      "Ġmaximum": 5639,
      "OS": 5640,
      "Ġbow": 5641,
      "ompl": 5642,
      "Ġnerv": 5643,
      "ĠBudd": 5644,
      "Ġdecline": 5645,
      "Ġinjury": 5646,
      "Ġonto": 5647,
      "aine": 5648,
      "bert": 5649,
      "luding": 5650,
      "ĠReport": 5651,
      "Ġsurvival": 5652,
      "Ġhorse": 5653,
      "Ġcontrolled": 5654,
      "CE": 5655,
      "Ġsod": 5656,
      "Ġbor": 5657,
      "Ġmamm": 5658,
      "ĠCamp": 5659,
      "Ġancest": 5660,
      "ague": 5661,
      "Ġpossess": 5662,
      "Ġvalid": 5663,
      "ĠAdminist": 5664,
      "Ġincreasingly": 5665,
      "aturally": 5666,
      "Ġmonitoring": 5667,
      "LE": 5668,
      "Ġgun": 5669,
      "Ġblog": 5670,
      "ĠAnother": 5671,
      "ĠParis": 5672,
      "den": 5673,
      "atal": 5674,
      "asp": 5675,
      "Ġlose": 5676,
      "Ġneut": 5677,
      "Ġshared": 5678,
      "ĠSciences": 5679,
      "ĠGlobal": 5680,
      "Ġsoldiers": 5681,
      "Ġtroops": 5682,
      "Ġbread": 5683,
      "ĠSuch": 5684,
      "Ġunlike": 5685,
      "Ġrocks": 5686,
      "Ġspecifically": 5687,
      "Ġapproaches": 5688,
      "ĠResources": 5689,
      "Ġswitch": 5690,
      "Ã¼": 5691,
      "ĠNorthern": 5692,
      "ĠLeg": 5693,
      "ĠOcean": 5694,
      "anged": 5695,
      "Ġaccompl": 5696,
      "Ġdepos": 5697,
      "Ġpossibly": 5698,
      "Ġimmediate": 5699,
      "ĠProfessor": 5700,
      "Ġexperiments": 5701,
      "Ġsell": 5702,
      "alian": 5703,
      "stract": 5704,
      "irds": 5705,
      "Ġimplic": 5706,
      "Ġages": 5707,
      "Ġrow": 5708,
      "Ġmarriage": 5709,
      "ĠAbout": 5710,
      "ĠJoseph": 5711,
      "During": 5712,
      "Note": 5713,
      "Ġpump": 5714,
      "ĠGold": 5715,
      "Ġmarked": 5716,
      "ĠStudy": 5717,
      "Ġforests": 5718,
      "ĠMuslim": 5719,
      ":||": 5720,
      "Dr": 5721,
      "ĠFederal": 5722,
      "ĠLand": 5723,
      "ĠOut": 5724,
      "Ġprem": 5725,
      "Ġphysics": 5726,
      "Ġsecondary": 5727,
      "Ġmassive": 5728,
      "Ġfailed": 5729,
      "Ġsatell": 5730,
      "ĠAcademy": 5731,
      "Ġunderstood": 5732,
      "34": 5733,
      "UR": 5734,
      "ss": 5735,
      "Ġtaught": 5736,
      "uls": 5737,
      "ĠBet": 5738,
      "Ġspend": 5739,
      "Ġformal": 5740,
      "ĠIsl": 5741,
      "ĠOnly": 5742,
      "Ġdiscussed": 5743,
      "Ġopinion": 5744,
      "gal": 5745,
      "ĠPower": 5746,
      "ĠBro": 5747,
      "Ġpoison": 5748,
      "Ġawareness": 5749,
      "Ġhypothes": 5750,
      "Ġbreathing": 5751,
      "Ġcogn": 5752,
      "ĠAS": 5753,
      "ĠMo": 5754,
      "Ġexpressed": 5755,
      "Ġprotected": 5756,
      "Ġseemed": 5757,
      "Ġfigures": 5758,
      "band": 5759,
      "inations": 5760,
      "Ġmuseum": 5761,
      "Ġlik": 5762,
      "ĠCub": 5763,
      "Ġyield": 5764,
      "Ġchosen": 5765,
      "Ġarter": 5766,
      "Ġattacks": 5767,
      "exp": 5768,
      "American": 5769,
      "Ġrein": 5770,
      "ĠTimes": 5771,
      "ishop": 5772,
      "everal": 5773,
      "Ġmechanism": 5774,
      "Ġthousand": 5775,
      "Ġsacr": 5776,
      "Ġfirm": 5777,
      "anta": 5778,
      "Ġcommit": 5779,
      "Ġroutine": 5780,
      "ĠMag": 5781,
      "ffee": 5782,
      "onds": 5783,
      "Ġfruits": 5784,
      "but": 5785,
      "Ġaw": 5786,
      "ĠSaf": 5787,
      "ĠCapt": 5788,
      "Ġsuc": 5789,
      "ĠKnow": 5790,
      "ĠSpain": 5791,
      "Why": 5792,
      "Ġchoices": 5793,
      "ĠAgricult": 5794,
      "77": 5795,
      "Ġmix": 5796,
      "elesc": 5797,
      "Ġcontrovers": 5798,
      "Ġassistance": 5799,
      "Ġ185": 5800,
      "Ġgrav": 5801,
      "05": 5802,
      "Ġpip": 5803,
      "othe": 5804,
      "ĠNor": 5805,
      "Ġimper": 5806,
      "Ġroots": 5807,
      "Ġremaining": 5808,
      "Ġgenerated": 5809,
      "Ġcorn": 5810,
      "Ġdownload": 5811,
      "Ġsensitive": 5812,
      "ictionary": 5813,
      "stein": 5814,
      "rons": 5815,
      "isters": 5816,
      "Ġlies": 5817,
      "Ġhaz": 5818,
      "Ġcontained": 5819,
      "Ġraise": 5820,
      "Ġacceler": 5821,
      "Ġshel": 5822,
      "ĠClass": 5823,
      "Ġopened": 5824,
      "ĠRussia": 5825,
      "Ġvehicle": 5826,
      "Ġcryst": 5827,
      "Ġbudget": 5828,
      "Since": 5829,
      "iced": 5830,
      "rot": 5831,
      "Ġstomach": 5832,
      "Ġparalle": 5833,
      "Ġsubstance": 5834,
      "uilding": 5835,
      "Ġleaving": 5836,
      "Ġworse": 5837,
      "Ġsurve": 5838,
      "Ġ1970": 5839,
      "Ġconcepts": 5840,
      "CD": 5841,
      "ache": 5842,
      "Ġlesson": 5843,
      "Ġappearance": 5844,
      "Ġslowly": 5845,
      "zen": 5846,
      "Ġtun": 5847,
      "Ġflex": 5848,
      "Ġdust": 5849,
      "Ġhunt": 5850,
      "ston": 5851,
      "abits": 5852,
      "Ġwealth": 5853,
      "Ġextended": 5854,
      "Ġflowers": 5855,
      ".'": 5856,
      "79": 5857,
      "Ġtiny": 5858,
      "urches": 5859,
      "abric": 5860,
      "ĠChicago": 5861,
      "Ġpossibility": 5862,
      "Ġsky": 5863,
      "Another": 5864,
      "Ġmotor": 5865,
      "Ġplatform": 5866,
      "orous": 5867,
      "Ġedge": 5868,
      "Ġdiam": 5869,
      "Ġgreatly": 5870,
      "Ġmeters": 5871,
      "Ġvessels": 5872,
      "01": 5873,
      "SS": 5874,
      "ora": 5875,
      "anes": 5876,
      "aria": 5877,
      "state": 5878,
      "ulatory": 5879,
      "ĠMad": 5880,
      "anda": 5881,
      "Ġrelation": 5882,
      "Ġentry": 5883,
      "Ġprogramming": 5884,
      "opyright": 5885,
      "Ġphysician": 5886,
      "41": 5887,
      "xts": 5888,
      "orter": 5889,
      "icon": 5890,
      "Ġdiversity": 5891,
      "Ġleaf": 5892,
      "Ġexpensive": 5893,
      "Ġoccasion": 5894,
      "Ġregularly": 5895,
      "ĠUsing": 5896,
      "ĠRevolution": 5897,
      "Ġrepeated": 5898,
      "88": 5899,
      "struct": 5900,
      "Ġassemb": 5901,
      "ĠBoston": 5902,
      "Ġexists": 5903,
      "ibilities": 5904,
      "Ġhelpful": 5905,
      "Ġrising": 5906,
      "Ġsurvive": 5907,
      "ka": 5908,
      "Ġsan": 5909,
      "Ġmales": 5910,
      "ĠFurther": 5911,
      "earchers": 5912,
      "ĠStr": 5913,
      "Ġadding": 5914,
      "Ġremote": 5915,
      "Ġaffects": 5916,
      "Ġreplaced": 5917,
      "ĠSupp": 5918,
      "Ind": 5919,
      "tic": 5920,
      "tle": 5921,
      "Ġbones": 5922,
      "ĠMont": 5923,
      "throp": 5924,
      "ĠStreet": 5925,
      "Ġsche": 5926,
      "ĠYet": 5927,
      "Ġdriving": 5928,
      "Stud": 5929,
      "Ġconsumers": 5930,
      "Ġderived": 5931,
      "Us": 5932,
      "Ġwid": 5933,
      "ĠTV": 5934,
      "ĠPeter": 5935,
      "ĠHaw": 5936,
      "agers": 5937,
      "Ġcommission": 5938,
      "Ġrefers": 5939,
      "ĠAnn": 5940,
      "Ġnecessarily": 5941,
      "Ġanswers": 5942,
      "Ġfemales": 5943,
      "rastructure": 5944,
      "Ġvillage": 5945,
      "Ġinsects": 5946,
      "Ġalgorith": 5947,
      "vard": 5948,
      "Ġneither": 5949,
      "ĠItaly": 5950,
      "Ġfoundation": 5951,
      "Ġextract": 5952,
      "Ġsignals": 5953,
      "rolog": 5954,
      "Ġerr": 5955,
      "Ġrelationships": 5956,
      "Ġgovernments": 5957,
      "look": 5958,
      "Ġcats": 5959,
      "Ġfalse": 5960,
      "ocation": 5961,
      "Ġcolumn": 5962,
      "Ġformat": 5963,
      "Ġminimum": 5964,
      "Ġestimate": 5965,
      "Ġpublication": 5966,
      "Ġtrials": 5967,
      "ĠFrank": 5968,
      "Gen": 5969,
      "hand": 5970,
      "orph": 5971,
      "organ": 5972,
      "Ġinher": 5973,
      "ctic": 5974,
      "ansion": 5975,
      "Ġrecip": 5976,
      "Ġdecade": 5977,
      "Ġreform": 5978,
      "Ġminim": 5979,
      "Ġfewer": 5980,
      "Ġmovements": 5981,
      "ĠGuide": 5982,
      "ĠMichael": 5983,
      "TS": 5984,
      "hist": 5985,
      "Ġastronom": 5986,
      "osh": 5987,
      "ĠRome": 5988,
      "ureau": 5989,
      "weight": 5990,
      "Ġdiscipl": 5991,
      "ĠIII": 5992,
      "Cl": 5993,
      "Ġexchange": 5994,
      "Ġrecon": 5995,
      "Ġtrust": 5996,
      "ĠEngine": 5997,
      "Ġmedicines": 5998,
      "break": 5999,
      "Ġpictures": 6000,
      "Ġarrived": 6001,
      "Ġsituations": 6002,
      "zy": 6003,
      "Ġfell": 6004,
      "Ġdim": 6005,
      "Ġlov": 6006,
      "osph": 6007,
      "Ġweap": 6008,
      "Ġcurric": 6009,
      "apping": 6010,
      "Ġdebate": 6011,
      "Ġinstitution": 6012,
      "Ġdin": 6013,
      "Ġnit": 6014,
      "phone": 6015,
      "tenance": 6016,
      "Ġedition": 6017,
      "Ġ75": 6018,
      "Ġorganized": 6019,
      "Ġmulti": 6020,
      "Ġcouple": 6021,
      "ĠInstead": 6022,
      "ĠRichard": 6023,
      "Te": 6024,
      "urance": 6025,
      "Ġaren": 6026,
      "Ġinstruction": 6027,
      "Ġzero": 6028,
      "Ġjobs": 6029,
      "Ġtouch": 6030,
      "Ġexcellent": 6031,
      "Ad": 6032,
      "ca": 6033,
      "gov": 6034,
      "http": 6035,
      "rating": 6036,
      "Ġtherap": 6037,
      "ena": 6038,
      "Ġpu": 6039,
      "ura": 6040,
      "Ġphr": 6041,
      "class": 6042,
      "Ġelectronic": 6043,
      "Ġapart": 6044,
      "Ġfilled": 6045,
      "ĠPC": 6046,
      "opes": 6047,
      "Ġagreed": 6048,
      "Ġ36": 6049,
      "Ġpharm": 6050,
      "comes": 6051,
      "Ġvariable": 6052,
      "bles": 6053,
      "icks": 6054,
      "ĠMill": 6055,
      "abil": 6056,
      "quar": 6057,
      "eck": 6058,
      "soft": 6059,
      "ĠStat": 6060,
      "teen": 6061,
      "incoln": 6062,
      "Ġmuscles": 6063,
      "idden": 6064,
      "Ġphotograph": 6065,
      "Ġdiagnosed": 6066,
      "ascular": 6067,
      "99": 6068,
      "ĠSup": 6069,
      "Ġpromin": 6070,
      "ĠEastern": 6071,
      "acts": 6072,
      "Ġclosed": 6073,
      "âĢĿ,": 6074,
      "iana": 6075,
      "Ġcolour": 6076,
      "Ġlocations": 6077,
      "Ġimmun": 6078,
      "Ġenemy": 6079,
      "Ġmoist": 6080,
      "ĠOhio": 6081,
      "04": 6082,
      "Ġvital": 6083,
      "Ġmedium": 6084,
      "ĠProv": 6085,
      "Ġentered": 6086,
      "Ġequival": 6087,
      "Ġcarefully": 6088,
      "ĠConvention": 6089,
      "Ġcutting": 6090,
      "Ġinflamm": 6091,
      "da": 6092,
      "hered": 6093,
      "Ġwire": 6094,
      "Ġnest": 6095,
      "sey": 6096,
      "Ġdecide": 6097,
      "Ġ1995": 6098,
      "Ġpainting": 6099,
      "Ġexplanation": 6100,
      "Ġrice": 6101,
      "Ġlect": 6102,
      "Ġproduces": 6103,
      "Ġfounded": 6104,
      "Ġcareer": 6105,
      "Ġlimits": 6106,
      "Ġindicates": 6107,
      "Ġintroduction": 6108,
      "Ġadministr": 6109,
      "Ġscholars": 6110,
      "eenth": 6111,
      "ĠBur": 6112,
      "Ġvoice": 6113,
      "Ġmanaged": 6114,
      "Ġdestroyed": 6115,
      "Ġbeautiful": 6116,
      "Ġconventional": 6117,
      "rine": 6118,
      "Ġbatt": 6119,
      "Ġbear": 6120,
      "ĠAP": 6121,
      "Ġshore": 6122,
      "Ġcloud": 6123,
      "ĠEncyclopedia": 6124,
      "Ġsuccessfully": 6125,
      "ĠFrancisco": 6126,
      "how": 6127,
      "Ġtal": 6128,
      "Ġstages": 6129,
      "tering": 6130,
      "ĠFe": 6131,
      "ĠFamily": 6132,
      "ĠGal": 6133,
      "Ġmatters": 6134,
      "Ġobservations": 6135,
      "Ġlegisl": 6136,
      "Ġguidelines": 6137,
      "Ġcoc": 6138,
      "Ġmild": 6139,
      "icians": 6140,
      "ctive": 6141,
      "Ġabuse": 6142,
      "Ġatolls": 6143,
      "ĠForest": 6144,
      "Ġaf": 6145,
      "Ġing": 6146,
      "ĠAccess": 6147,
      "umin": 6148,
      "alls": 6149,
      "Ġteen": 6150,
      "Ġsupplement": 6151,
      "azine": 6152,
      "Ġdelay": 6153,
      "urdy": 6154,
      "Ġgirls": 6155,
      "cribed": 6156,
      "gans": 6157,
      "ication": 6158,
      "ĠSl": 6159,
      "earing": 6160,
      "Ġ500": 6161,
      "Ġjustice": 6162,
      "Ġinsulin": 6163,
      "Ġagreement": 6164,
      "Ġbanks": 6165,
      "ĠPot": 6166,
      "ĠDam": 6167,
      "Ġsole": 6168,
      "Ġacts": 6169,
      "Ġseeing": 6170,
      "Ġinterests": 6171,
      "ĠQue": 6172,
      "Ġdeliver": 6173,
      "Ġconstitution": 6174,
      "Ġnutrients": 6175,
      "Ġpermanent": 6176,
      "My": 6177,
      "esity": 6178,
      "ione": 6179,
      "Ġaccident": 6180,
      "Ġintervention": 6181,
      "Ġglob": 6182,
      "mm": 6183,
      "top": 6184,
      "Ġnine": 6185,
      "igan": 6186,
      "ĠPope": 6187,
      "ĠRoyal": 6188,
      "Ġcomposed": 6189,
      "Ġteeth": 6190,
      "ĠAny": 6191,
      "Ġimplementation": 6192,
      "ĠAtlantic": 6193,
      "Ġpretty": 6194,
      "ih": 6195,
      "Ġnone": 6196,
      "olve": 6197,
      "ĠWood": 6198,
      "oster": 6199,
      "Ġju": 6200,
      "Ġnutrition": 6201,
      "IP": 6202,
      "ĠÃ": 6203,
      "antly": 6204,
      "agon": 6205,
      "Ġtea": 6206,
      "ints": 6207,
      "Ġundert": 6208,
      "inking": 6209,
      "Ġacknow": 6210,
      "Ġmembran": 6211,
      "ĠAustralian": 6212,
      "Ġobtain": 6213,
      "En": 6214,
      "Qu": 6215,
      "liam": 6216,
      "ancing": 6217,
      "ĠHo": 6218,
      "Ġships": 6219,
      "Ġunp": 6220,
      "Ġtexts": 6221,
      "Ġtwenty": 6222,
      "Ġattached": 6223,
      "Ġaccounts": 6224,
      "Ġcircumstances": 6225,
      "then": 6226,
      "requ": 6227,
      "ester": 6228,
      "Ġfill": 6229,
      "Ġmixed": 6230,
      "Ġnaturally": 6231,
      "lder": 6232,
      "ĠCommon": 6233,
      "ipping": 6234,
      "Ġconcentration": 6235,
      "Ġvehicles": 6236,
      ")||": 6237,
      "Ġtips": 6238,
      "Ġfract": 6239,
      "Ġ1996": 6240,
      "books": 6241,
      "Ġtalking": 6242,
      "Ġprepare": 6243,
      "charge": 6244,
      "Ġkidney": 6245,
      "EM": 6246,
      "Rec": 6247,
      "rary": 6248,
      "Ġcart": 6249,
      "Ġmath": 6250,
      "Ġnurs": 6251,
      "ogue": 6252,
      "Ġvaluable": 6253,
      "Ġwriter": 6254,
      "Ġbreeding": 6255,
      "Ġopposite": 6256,
      "aska": 6257,
      "Ġ1960": 6258,
      "Ġquantum": 6259,
      "Ġvolunte": 6260,
      "Ġintellectual": 6261,
      "bur": 6262,
      "ye": 6263,
      "Ġpus": 6264,
      "etics": 6265,
      "Ġzone": 6266,
      "Ġgreenhouse": 6267,
      "Ġpowers": 6268,
      "BS": 6269,
      "Ġtasks": 6270,
      "Ġstrict": 6271,
      "uses": 6272,
      "Ġincl": 6273,
      "ificial": 6274,
      "Ġregist": 6275,
      "Ġruns": 6276,
      "Ġopening": 6277,
      "ĠCancer": 6278,
      "Ġconsistent": 6279,
      "ĠDirector": 6280,
      "html": 6281,
      "rey": 6282,
      "Ġcatch": 6283,
      "ita": 6284,
      "Ġdrain": 6285,
      "ĠCare": 6286,
      "ogle": 6287,
      "Ġarms": 6288,
      "Ġ32": 6289,
      "Ġaccum": 6290,
      "Ġsmoke": 6291,
      "Ġ150": 6292,
      "ĠNavy": 6293,
      "comm": 6294,
      "ycl": 6295,
      "alo": 6296,
      "ĠProp": 6297,
      "Ġsports": 6298,
      "Ġenable": 6299,
      "Ġinfrastructure": 6300,
      "ercury": 6301,
      "Ġachieved": 6302,
      "Ġwildlife": 6303,
      "ĠAND": 6304,
      "Ġcloser": 6305,
      "87": 6306,
      "ded": 6307,
      "Ġmaps": 6308,
      "asive": 6309,
      "Ġgather": 6310,
      "Ġrid": 6311,
      "ĠList": 6312,
      "ĠLincoln": 6313,
      "Ġassist": 6314,
      "Ġsupposed": 6315,
      "Ġcars": 6316,
      "Ġafford": 6317,
      "Ġidentity": 6318,
      "Ġdifficulty": 6319,
      "liament": 6320,
      "inn": 6321,
      "Ġwitness": 6322,
      "Ġmanip": 6323,
      "Ġunable": 6324,
      "Ġuniversity": 6325,
      "Ġflo": 6326,
      "Ġresulted": 6327,
      "Ġconsiderable": 6328,
      "ĠSpecial": 6329,
      "ĠSupreme": 6330,
      "Ġabnormal": 6331,
      "ghan": 6332,
      "pling": 6333,
      "Ġtraffic": 6334,
      "Ġtelevision": 6335,
      "Ġperspective": 6336,
      "Your": 6337,
      "zil": 6338,
      "ented": 6339,
      "ĠTw": 6340,
      "ĠTim": 6341,
      "ĠTime": 6342,
      "ĠOper": 6343,
      "Ġsomewhat": 6344,
      "Ġeditor": 6345,
      "Ġelected": 6346,
      "ĠColor": 6347,
      "itudes": 6348,
      "Ġcoastal": 6349,
      "ĠSecretary": 6350,
      "pes": 6351,
      "inch": 6352,
      "Ġske": 6353,
      "itan": 6354,
      "Ġhabits": 6355,
      "oto": 6356,
      "ami": 6357,
      "ĠLab": 6358,
      "Ġunus": 6359,
      "ricts": 6360,
      "Ġcoffee": 6361,
      "Ġera": 6362,
      "Ġtells": 6363,
      "Ġethnic": 6364,
      "Ġarchitecture": 6365,
      "Ġearthquake": 6366,
      "Do": 6367,
      "bour": 6368,
      "Ġfet": 6369,
      "Ġlie": 6370,
      "Ġconven": 6371,
      "Ġrig": 6372,
      "ĠUSA": 6373,
      "ĠExper": 6374,
      "ĠExpl": 6375,
      "Ġratio": 6376,
      "Ġfiction": 6377,
      "Ġheating": 6378,
      "illa": 6379,
      "ĠRob": 6380,
      "Ġouter": 6381,
      "Ġdepart": 6382,
      "Ġfacilit": 6383,
      "Ġcalcium": 6384,
      "Ġprincipal": 6385,
      "AA": 6386,
      "car": 6387,
      "pread": 6388,
      "rd": 6389,
      "Ġthor": 6390,
      "Ġwhatever": 6391,
      "ĠPlease": 6392,
      "ĠFed": 6393,
      "Ġwear": 6394,
      "Ġparties": 6395,
      "Ġattend": 6396,
      "Ġassign": 6397,
      "Ġsecure": 6398,
      "Ġslaves": 6399,
      "Ġcultiv": 6400,
      "Ġtopics": 6401,
      "Ġsupplies": 6402,
      "Pe": 6403,
      "cons": 6404,
      "inity": 6405,
      "Ġwish": 6406,
      "Ġgal": 6407,
      "ima": 6408,
      "Ġproof": 6409,
      "Ġsuffer": 6410,
      "Ġcapture": 6411,
      "Ġdollars": 6412,
      "ĠAdministration": 6413,
      "OC": 6414,
      "struction": 6415,
      "Ġsharing": 6416,
      "ags": 6417,
      "Ġcontamin": 6418,
      "Ġgenerations": 6419,
      "lishing": 6420,
      "Ġauthorities": 6421,
      "hemical": 6422,
      "Ġgrew": 6423,
      "Ġphotos": 6424,
      "ĠâĨ": 6425,
      "ĠOxford": 6426,
      "Because": 6427,
      "EP": 6428,
      "cher": 6429,
      "Ġfabric": 6430,
      "ĠAR": 6431,
      "otton": 6432,
      "ĠPolic": 6433,
      "Ġimpl": 6434,
      "idespread": 6435,
      "Ġfacility": 6436,
      "Ġinvestment": 6437,
      "ĠAgency": 6438,
      "Ġjoined": 6439,
      "inally": 6440,
      "Ġbrown": 6441,
      "Ġborder": 6442,
      "rays": 6443,
      "Ġshock": 6444,
      "Ġprev": 6445,
      "Ġmaintenance": 6446,
      "Ġsubstances": 6447,
      "Ġsteel": 6448,
      "igenous": 6449,
      "ĠGeorgia": 6450,
      "43": 6451,
      "],": 6452,
      "fish": 6453,
      "sm": 6454,
      "ĠDet": 6455,
      "Ġspending": 6456,
      "ĠVan": 6457,
      "Ġfeeding": 6458,
      "Ġpercentage": 6459,
      "Ġissued": 6460,
      "Ġsoul": 6461,
      "Ġmessages": 6462,
      "fs": 6463,
      "fortunately": 6464,
      "Ġboy": 6465,
      "Ġfixed": 6466,
      "Ġforth": 6467,
      "Ġvote": 6468,
      "ĠDou": 6469,
      "Ġmining": 6470,
      "Ġstanding": 6471,
      "Ġrestrict": 6472,
      "Ġdraft": 6473,
      "Ġterritory": 6474,
      "Ġmerely": 6475,
      "ĠCambridge": 6476,
      "zed": 6477,
      "Ġgone": 6478,
      "ĠId": 6479,
      "Ġcomments": 6480,
      "Ġenab": 6481,
      "Ġapprec": 6482,
      "Ġcenters": 6483,
      "Ġpositions": 6484,
      "ĠClin": 6485,
      "Ġfourth": 6486,
      "Ġgradually": 6487,
      "ceeded": 6488,
      "Ġcurriculum": 6489,
      "81": 6490,
      "ny": 6491,
      "ĠSol": 6492,
      "Ġworship": 6493,
      "ĠHarry": 6494,
      "Ġrivers": 6495,
      "Ġvaccines": 6496,
      "Ġtransmission": 6497,
      "Ġrenewable": 6498,
      "Ġprofessionals": 6499,
      "Ġanxiety": 6500,
      "'d": 6501,
      "67": 6502,
      "CL": 6503,
      "oral": 6504,
      "Ġtom": 6505,
      "raq": 6506,
      "ĠFree": 6507,
      "Ġdoor": 6508,
      "Ġ1994": 6509,
      "Ġsupports": 6510,
      "Ġmetab": 6511,
      "Ġfunds": 6512,
      "Ġreactions": 6513,
      "ĠLearning": 6514,
      "Ġtoler": 6515,
      "otion": 6516,
      "ĠBre": 6517,
      "ĠWik": 6518,
      "unched": 6519,
      "Ġshut": 6520,
      "Ġkit": 6521,
      "Ġknows": 6522,
      "ventions": 6523,
      "ĠNewton": 6524,
      "Ġexception": 6525,
      "Ġequivalent": 6526,
      "gu": 6527,
      "Ġtail": 6528,
      "itals": 6529,
      "opic": 6530,
      "riers": 6531,
      "ults": 6532,
      "ĠThose": 6533,
      "Ġpassage": 6534,
      "Ġcarrying": 6535,
      "Ġtube": 6536,
      "ĠDivision": 6537,
      "Ġdedicated": 6538,
      "',": 6539,
      "produ": 6540,
      "Ġton": 6541,
      "ading": 6542,
      "heric": 6543,
      "abul": 6544,
      "ulty": 6545,
      "Ġmanif": 6546,
      "Ġproved": 6547,
      "Ġsimpl": 6548,
      "ĠExp": 6549,
      "Ġannounced": 6550,
      "Ġmeasurements": 6551,
      "Ġmountains": 6552,
      "Ġcooling": 6553,
      "Ġlifest": 6554,
      "Ġcognitive": 6555,
      "95": 6556,
      "nut": 6557,
      "wing": 6558,
      "itter": 6559,
      "ĠBrown": 6560,
      "inder": 6561,
      "Ġteens": 6562,
      "Ġtrain": 6563,
      "Ġpron": 6564,
      "Ġsubm": 6565,
      "ĠAtt": 6566,
      "ĠChristmas": 6567,
      "Ġprompt": 6568,
      "Ġmotiv": 6569,
      "scale": 6570,
      "ourage": 6571,
      "Ġrevealed": 6572,
      "Ġframe": 6573,
      "Ġultimately": 6574,
      "42": 6575,
      "mary": 6576,
      "Ġhus": 6577,
      "Ġran": 6578,
      "ritis": 6579,
      "Ġtransf": 6580,
      "Ġgrain": 6581,
      "arsh": 6582,
      "Ġchest": 6583,
      "Ġoperate": 6584,
      "ĠPrevention": 6585,
      "Ġprinted": 6586,
      "ĠHeritage": 6587,
      "Ġbabies": 6588,
      "Ġfighting": 6589,
      "Ġbranches": 6590,
      "uke": 6591,
      "Ġbeings": 6592,
      "ĠWhere": 6593,
      "Ġplus": 6594,
      "angered": 6595,
      "Ġdisturb": 6596,
      "Ġelection": 6597,
      "while": 6598,
      "Ġrecognition": 6599,
      "Ġmechanisms": 6600,
      "IA": 6601,
      "flow": 6602,
      "anz": 6603,
      "Ġinner": 6604,
      "arant": 6605,
      "Ġnerve": 6606,
      "ĠPop": 6607,
      "Ġblocks": 6608,
      "Ġstudying": 6609,
      "Ġconfig": 6610,
      "ĠIslands": 6611,
      "Ġscientist": 6612,
      "Ġparam": 6613,
      "Ġmobile": 6614,
      "Figure": 6615,
      "QL": 6616,
      "irty": 6617,
      "quist": 6618,
      "ĠEst": 6619,
      "Ġempt": 6620,
      "Ġdepartment": 6621,
      "ĠConn": 6622,
      "Ġapproved": 6623,
      "Ġstrongly": 6624,
      "Ġfrequent": 6625,
      "Ġdebt": 6626,
      "Ġaccompan": 6627,
      "eries": 6628,
      "utch": 6629,
      "ĠCult": 6630,
      "Ġrub": 6631,
      "Ġplays": 6632,
      "Ġexpansion": 6633,
      "Ġmode": 6634,
      "Ġcontrols": 6635,
      "Ġimproving": 6636,
      "ĠCanadian": 6637,
      "Ġpolitics": 6638,
      "Ġpregnant": 6639,
      "Ġinterpretation": 6640,
      "Ġtumor": 6641,
      "72": 6642,
      "iability": 6643,
      "ki": 6644,
      "Ġahead": 6645,
      "Ġcast": 6646,
      "Ġinqu": 6647,
      "Ġdensity": 6648,
      "Ġhole": 6649,
      "Ġepid": 6650,
      "ĠCard": 6651,
      "Ġchick": 6652,
      "Ġcommittee": 6653,
      "Ġrecovery": 6654,
      "Ġdefe": 6655,
      "Ġnegot": 6656,
      "ĠLaboratory": 6657,
      "Ġparallel": 6658,
      "war": 6659,
      "Ġinhib": 6660,
      "Ġdiox": 6661,
      "ĠIraq": 6662,
      "ĠBr": 6663,
      "ĠFour": 6664,
      "ĠLow": 6665,
      "Ġspok": 6666,
      "izer": 6667,
      "Ġcentre": 6668,
      "Ġsupporting": 6669,
      "Ġlegs": 6670,
      "Ġreceiving": 6671,
      "ĠParty": 6672,
      "Ġlandscape": 6673,
      "Ġsweet": 6674,
      "Ġthy": 6675,
      "Ġgram": 6676,
      "Ġrequest": 6677,
      "Ġindicated": 6678,
      "Ġenhance": 6679,
      "Not": 6680,
      "Ġwel": 6681,
      "Ġblow": 6682,
      "Ġdaughter": 6683,
      "ĠTor": 6684,
      "igation": 6685,
      "andon": 6686,
      "ĠJeff": 6687,
      "Ġpreval": 6688,
      "Ġbless": 6689,
      "Ġsolve": 6690,
      "Ġcreates": 6691,
      "Ġsuffering": 6692,
      "Ġindependence": 6693,
      "Ġmanufacturing": 6694,
      "Ġmortality": 6695,
      "ĠColumbia": 6696,
      "71": 6697,
      "UC": 6698,
      "chen": 6699,
      "Ġwidespread": 6700,
      "ĠAri": 6701,
      "ĠBible": 6702,
      "using": 6703,
      "ĠFreed": 6704,
      "Ġinterf": 6705,
      "theless": 6706,
      "Ġmoves": 6707,
      "ediatric": 6708,
      "Ġholds": 6709,
      "ĠConservation": 6710,
      "ĠAuthor": 6711,
      "ĠValley": 6712,
      "Ġintelligence": 6713,
      "Ġlaser": 6714,
      "Can": 6715,
      "reland": 6716,
      "Ġpounds": 6717,
      "asters": 6718,
      "uten": 6719,
      "Ġuniform": 6720,
      "Ġmoderate": 6721,
      "Ġmagnetic": 6722,
      "Ġpurchase": 6723,
      "73": 6724,
      "Ġille": 6725,
      "Ġbomb": 6726,
      "Ġorgans": 6727,
      "ostic": 6728,
      "Ġoutcomes": 6729,
      "ĠHarvard": 6730,
      "ĠÂ£": 6731,
      "Ġemployed": 6732,
      "Ġcategory": 6733,
      "Ġcm": 6734,
      "acon": 6735,
      "ĠVict": 6736,
      "Ġpolice": 6737,
      "Ġdefine": 6738,
      "ĠCoast": 6739,
      "84": 6740,
      "OP": 6741,
      "ĠIP": 6742,
      "ĠDig": 6743,
      "Ġuns": 6744,
      "Ġcovers": 6745,
      "Ġsigned": 6746,
      "Ġgluc": 6747,
      "Ġveter": 6748,
      "Ġtruly": 6749,
      "ymph": 6750,
      "Ġdanger": 6751,
      "Ġhonor": 6752,
      "ĠAngel": 6753,
      "Ġemotional": 6754,
      "ĠMartin": 6755,
      "83": 6756,
      "mentia": 6757,
      "ĠRom": 6758,
      "ĠFort": 6759,
      "uclear": 6760,
      "Ġdestruction": 6761,
      "Ġdivine": 6762,
      "ooth": 6763,
      "tra": 6764,
      "ugg": 6765,
      "Ġid": 6766,
      "ola": 6767,
      "ceived": 6768,
      "rium": 6769,
      "ĠEnd": 6770,
      "ĠEqu": 6771,
      "Ġinstalled": 6772,
      "Ġexamined": 6773,
      "Ġreaders": 6774,
      "Ġputting": 6775,
      "Ġphoto": 6776,
      "Ġimprovement": 6777,
      "Ġtrouble": 6778,
      "Ã¶": 6779,
      "Ġwine": 6780,
      "Ġwasn": 6781,
      "Ġusual": 6782,
      "ĠStep": 6783,
      "Ġunderlying": 6784,
      "Ġdiverse": 6785,
      "ĠIndians": 6786,
      "Ġscreening": 6787,
      "Ġvulnerable": 6788,
      "yles": 6789,
      "Ġath": 6790,
      "hent": 6791,
      "ĠExt": 6792,
      "Ġdisaster": 6793,
      "iodiversity": 6794,
      "Ġstarts": 6795,
      "ĠAdv": 6796,
      "Ġmarried": 6797,
      "ĠAfghan": 6798,
      "Ġturns": 6799,
      "Ġnetworks": 6800,
      "Ġdivision": 6801,
      "Ġdeclared": 6802,
      "Ġleadership": 6803,
      "ĠJustice": 6804,
      "Ġsediment": 6805,
      "Ġstruggle": 6806,
      "RA": 6807,
      "UT": 6808,
      "Ġtall": 6809,
      "Ġtheore": 6810,
      "Ġlots": 6811,
      "Ġstands": 6812,
      "ĠMel": 6813,
      "ĠPract": 6814,
      "ĠLanguage": 6815,
      "Ġmeal": 6816,
      "Ġcolors": 6817,
      "Ġflav": 6818,
      "including": 6819,
      "Ġseconds": 6820,
      "ographical": 6821,
      "ĠClimate": 6822,
      "Ġcrim": 6823,
      "Ġdomin": 6824,
      "Ġnucle": 6825,
      "Ġbeliefs": 6826,
      "ĠNetwork": 6827,
      "Ġadequate": 6828,
      "06": 6829,
      "cre": 6830,
      "eor": 6831,
      "tage": 6832,
      "yr": 6833,
      "Ġcosm": 6834,
      "Ġgro": 6835,
      "ivered": 6836,
      "orders": 6837,
      "Ġcoloured": 6838,
      "ĠÂ©": 6839,
      "Ġmachines": 6840,
      "Ġinstructions": 6841,
      "Ġappointed": 6842,
      "Ġapparently": 6843,
      "Ġaward": 6844,
      "iti": 6845,
      "arn": 6846,
      "ĠPo": 6847,
      "Ġdeer": 6848,
      "Ġclient": 6849,
      "ĠThrough": 6850,
      "Ġtransp": 6851,
      "Ġended": 6852,
      "Ġboys": 6853,
      "Ġaddresses": 6854,
      "Ġlaunch": 6855,
      "Ġorders": 6856,
      "Ġarrange": 6857,
      "pet": 6858,
      "etary": 6859,
      "iral": 6860,
      "ĠLee": 6861,
      "Ġintense": 6862,
      "Ġadoles": 6863,
      "Ġinfant": 6864,
      "Ġlegislation": 6865,
      "gs": 6866,
      "Ġtank": 6867,
      "isdom": 6868,
      "alm": 6869,
      "Ġmit": 6870,
      "Ġoral": 6871,
      "erent": 6872,
      "Ġwilling": 6873,
      "ĠItalian": 6874,
      "Ġpresentation": 6875,
      "Ġnearby": 6876,
      "Ġopposed": 6877,
      "Ġbiology": 6878,
      "Ġparticipate": 6879,
      "Ġhistoric": 6880,
      "ĠBoard": 6881,
      "Ġrarely": 6882,
      "Ġsodium": 6883,
      "bean": 6884,
      "ĠSand": 6885,
      "aded": 6886,
      "ĠNov": 6887,
      "Ġenorm": 6888,
      "Ġtrained": 6889,
      "....": 6890,
      "Ġartists": 6891,
      "Ġyounger": 6892,
      "Ġattempts": 6893,
      "Ġbehaviors": 6894,
      "Ġcrucial": 6895,
      ".âĢĶ": 6896,
      "66": 6897,
      "Ġped": 6898,
      "ĠMake": 6899,
      "operation": 6900,
      "osion": 6901,
      "Ġspaces": 6902,
      "Ġshift": 6903,
      "Ġends": 6904,
      "ishment": 6905,
      "Ġsmoking": 6906,
      "Ġdiscrim": 6907,
      "vironments": 6908,
      "aneous": 6909,
      "Ġconsumer": 6910,
      "Ġroute": 6911,
      "Ġtransportation": 6912,
      "Ġrobot": 6913,
      "Ġprominent": 6914,
      "Ġdioxide": 6915,
      "\")": 6916,
      "Am": 6917,
      "uther": 6918,
      "Ġprove": 6919,
      "ĠFather": 6920,
      "occ": 6921,
      "ĠGood": 6922,
      "Ġclust": 6923,
      "atively": 6924,
      "ĠIndust": 6925,
      "Ġengage": 6926,
      "Ġcommunicate": 6927,
      "Ġlaid": 6928,
      "Ġordered": 6929,
      "ĠMichigan": 6930,
      "Ġconfirmed": 6931,
      "bi": 6932,
      "Ġsight": 6933,
      "roid": 6934,
      "ĠEarly": 6935,
      "Ġholding": 6936,
      "Ġcounsel": 6937,
      "Ġrecommendations": 6938,
      "ĠOrganization": 6939,
      "Ġfibers": 6940,
      "modern": 6941,
      "07": 6942,
      "Int": 6943,
      "Ġdeploy": 6944,
      "ĠBill": 6945,
      "ighter": 6946,
      "ĠNO": 6947,
      "outs": 6948,
      "airy": 6949,
      "ĠDev": 6950,
      "Ġcriteria": 6951,
      "ucky": 6952,
      "Ġlicens": 6953,
      "Ġingred": 6954,
      ".;": 6955,
      "HD": 6956,
      "May": 6957,
      "Of": 6958,
      "erals": 6959,
      "anol": 6960,
      "Ġlag": 6961,
      "cel": 6962,
      "ĠSk": 6963,
      "ĠIreland": 6964,
      "Ġaspect": 6965,
      "istent": 6966,
      "Ġatoms": 6967,
      "Ġvac": 6968,
      "Ġrational": 6969,
      "Ġreserved": 6970,
      "Ġprovider": 6971,
      "Ġsurfaces": 6972,
      "Ġconference": 6973,
      "Ġbreed": 6974,
      "Ġbattery": 6975,
      "Ġturb": 6976,
      "herent": 6977,
      "Ġpig": 6978,
      "ĠAh": 6979,
      "iration": 6980,
      "ĠPet": 6981,
      "ĠHind": 6982,
      "ĠEPA": 6983,
      "allow": 6984,
      "Ġcommitted": 6985,
      "ifications": 6986,
      "ĠHeart": 6987,
      "Ġformula": 6988,
      "Ġdistricts": 6989,
      "spring": 6990,
      "Ġinvolving": 6991,
      "ĠPrince": 6992,
      "Ġvariables": 6993,
      "Ġvisitors": 6994,
      "Ġinteraction": 6995,
      "Ġcaptured": 6996,
      "Ġwait": 6997,
      "Ġisolated": 6998,
      "aired": 6999,
      "br": 7000,
      "Ġgender": 7001,
      "istical": 7002,
      "Ġabandon": 7003,
      "Ġ1950": 7004,
      "ashion": 7005,
      "Ġfeelings": 7006,
      "Ġearliest": 7007,
      "haust": 7008,
      "Ġintegrated": 7009,
      "ĠKingdom": 7010,
      "bar": 7011,
      "ding": 7012,
      "eper": 7013,
      "pan": 7014,
      "Ġwound": 7015,
      "Ġstreet": 7016,
      "ĠGulf": 7017,
      "rous": 7018,
      "ustain": 7019,
      "Ġscar": 7020,
      "ĠChief": 7021,
      "Ġraw": 7022,
      "Ġexamine": 7023,
      "Ġ65": 7024,
      "Ġinsert": 7025,
      "Ġdigest": 7026,
      "Ġbrings": 7027,
      "ĠCommunity": 7028,
      "Ġinformed": 7029,
      "ĠBrazil": 7030,
      "lines": 7031,
      "Ġcattle": 7032,
      "Ġpapers": 7033,
      "olph": 7034,
      "ĠFund": 7035,
      "Ġchurches": 7036,
      "Ġring": 7037,
      "Ġroughly": 7038,
      "Ġregulations": 7039,
      "Ġextend": 7040,
      "Ġ1993": 7041,
      "Ġcourses": 7042,
      "inois": 7043,
      "Ġepis": 7044,
      "ENT": 7045,
      "Ġcomparison": 7046,
      "Ġvictims": 7047,
      ",'": 7048,
      "Ġtropical": 7049,
      "Ġtheories": 7050,
      "Ġcong": 7051,
      "Ġscene": 7052,
      "ĠYoung": 7053,
      "Ġdrawn": 7054,
      "Ġcreative": 7055,
      "Ġargued": 7056,
      "ĠDesign": 7057,
      "Ġjoin": 7058,
      "DE": 7059,
      "DP": 7060,
      "Ġcards": 7061,
      "Ġdrought": 7062,
      "ptic": 7063,
      "ĠJac": 7064,
      "Ġresident": 7065,
      "Ġfever": 7066,
      "Ġforming": 7067,
      "Ġwrites": 7068,
      "Ġproportion": 7069,
      "Ġobjective": 7070,
      "Ġdelivered": 7071,
      "ĠOnline": 7072,
      "Ġoptim": 7073,
      "Ġmaintained": 7074,
      "Ġsatellite": 7075,
      "Ear": 7076,
      "fn": 7077,
      "sen": 7078,
      "word": 7079,
      "Ġbull": 7080,
      "ĠAff": 7081,
      "ĠCle": 7082,
      "Ġstead": 7083,
      "thritis": 7084,
      "ĠStu": 7085,
      "Ġdistributed": 7086,
      "ĠWho": 7087,
      "Ġplane": 7088,
      "Ġplanned": 7089,
      "Ġcircuit": 7090,
      "Ġbiggest": 7091,
      "Ġessentially": 7092,
      "Ġarchae": 7093,
      "Ġlaunched": 7094,
      "Ġimplemented": 7095,
      "Ġordinary": 7096,
      "Ġtumors": 7097,
      "Ġexperimental": 7098,
      "Ġdeficiency": 7099,
      "03": 7100,
      "Ġsought": 7101,
      "Ġcav": 7102,
      "ether": 7103,
      "emia": 7104,
      "Ġeffectiveness": 7105,
      "Ġlessons": 7106,
      "Ġsla": 7107,
      "azing": 7108,
      "Ġmarkets": 7109,
      "Ġparticipation": 7110,
      "Ġobservation": 7111,
      "ĠConference": 7112,
      "ĠWildlife": 7113,
      "Ġwants": 7114,
      "Ġfer": 7115,
      "ĠPu": 7116,
      "Ġdementia": 7117,
      "orted": 7118,
      "orses": 7119,
      "Ġoblig": 7120,
      "Ġassigned": 7121,
      "Ġwhereas": 7122,
      "Ġevening": 7123,
      "ĠScot": 7124,
      "Ġpassing": 7125,
      "Ġconnections": 7126,
      "Ġresponses": 7127,
      "Ġuniversal": 7128,
      "Ġsatisf": 7129,
      "hnquist": 7130,
      "Ġslavery": 7131,
      "Bl": 7132,
      "ala": 7133,
      "asant": 7134,
      "Ġenvironments": 7135,
      "Ġreserv": 7136,
      "Ġobesity": 7137,
      "Ġexamination": 7138,
      "Ġdefense": 7139,
      "Ġguarant": 7140,
      "ilosop": 7141,
      "Ġtissues": 7142,
      "erior": 7143,
      "Ġpra": 7144,
      "Ġmixt": 7145,
      "icate": 7146,
      "Ġdates": 7147,
      "ĠAge": 7148,
      "Ġstores": 7149,
      "ĠHospital": 7150,
      "oca": 7151,
      "ĠGree": 7152,
      "Ġcompounds": 7153,
      "Ġslave": 7154,
      "box": 7155,
      "prof": 7156,
      "Ġhousing": 7157,
      "%)": 7158,
      "Ed": 7159,
      "First": 7160,
      "Once": 7161,
      "Ġcrow": 7162,
      "icit": 7163,
      "ĠTre": 7164,
      "Ġconclusion": 7165,
      "ifer": 7166,
      "peror": 7167,
      "ibl": 7168,
      "hesis": 7169,
      "Ġextension": 7170,
      "Ġvariation": 7171,
      "Ġowner": 7172,
      "Ġcultures": 7173,
      "Ġfarms": 7174,
      "Ġneighborhood": 7175,
      ")|": 7176,
      "09": 7177,
      "aah": 7178,
      "def": 7179,
      "vin": 7180,
      "Ġgained": 7181,
      "ĠBefore": 7182,
      "Ġhero": 7183,
      "ĠEth": 7184,
      "ansas": 7185,
      "Ġtransition": 7186,
      "ĠPhilosoph": 7187,
      "Ġhandle": 7188,
      "Ġcrime": 7189,
      "Ġpermission": 7190,
      "Ġevaluation": 7191,
      "ĠVolume": 7192,
      "Ġcollaboration": 7193,
      "IL": 7194,
      "Ġpool": 7195,
      "Ġtooth": 7196,
      "Ġprohib": 7197,
      "Ġsuitable": 7198,
      "ĠNative": 7199,
      "Ġrank": 7200,
      "ella": 7201,
      "Ġjump": 7202,
      "Ġrelax": 7203,
      "Ġfinds": 7204,
      "ĠAmong": 7205,
      "Ġmaintaining": 7206,
      "Ġbreath": 7207,
      "ĠConfed": 7208,
      "hyth": 7209,
      "ĠModern": 7210,
      "About": 7211,
      "Over": 7212,
      "hav": 7213,
      "vol": 7214,
      "Ġsections": 7215,
      "Ġmail": 7216,
      "ĠSir": 7217,
      "acent": 7218,
      "ĠDO": 7219,
      "ĠUr": 7220,
      "ĠJul": 7221,
      "Ġintensity": 7222,
      "Ġoutbreak": 7223,
      "Ġnewly": 7224,
      "Ġsmart": 7225,
      "Ġautism": 7226,
      "Ġcombat": 7227,
      "74": 7228,
      "Des": 7229,
      "mes": 7230,
      "night": 7231,
      "Ġaer": 7232,
      "Ġcited": 7233,
      "Ġfring": 7234,
      "Ġholes": 7235,
      "ĠCreek": 7236,
      "ĠDen": 7237,
      "Ġshot": 7238,
      "ptions": 7239,
      "ĠUt": 7240,
      "ormon": 7241,
      "Ġcompris": 7242,
      "Ġrelief": 7243,
      "ĠScott": 7244,
      "Ġforecast": 7245,
      "Ġassociation": 7246,
      "ĠGovern": 7247,
      "Ġmeasurement": 7248,
      "Ġdrawing": 7249,
      "ĠSurvey": 7250,
      "ĠIllinois": 7251,
      "Ġnervous": 7252,
      "elescope": 7253,
      "\";": 7254,
      "'.": 7255,
      "Ġsession": 7256,
      "Ġmm": 7257,
      "uter": 7258,
      "Ġstations": 7259,
      "Ġstable": 7260,
      "ĠNote": 7261,
      "Ġvarieties": 7262,
      "Ġdescript": 7263,
      "Ġfalls": 7264,
      "Ġbusinesses": 7265,
      "Ġconcrete": 7266,
      "PR": 7267,
      "Rep": 7268,
      "ugh": 7269,
      "Ġaqu": 7270,
      "Ġhun": 7271,
      "Ġlists": 7272,
      "emb": 7273,
      "itionally": 7274,
      "Ġtrip": 7275,
      "Ġaccuracy": 7276,
      "Ġdemonstrated": 7277,
      "hi": 7278,
      "Ġtight": 7279,
      "Ġgrid": 7280,
      "ĠBattle": 7281,
      "ĠBureau": 7282,
      "ums": 7283,
      "Ġvoc": 7284,
      "ĠNaz": 7285,
      "ĠGet": 7286,
      "ĠGard": 7287,
      "Ġintake": 7288,
      "Ġreliable": 7289,
      "Ġdemocracy": 7290,
      "ributes": 7291,
      "Ġframework": 7292,
      "Ġinfluenced": 7293,
      "HA": 7294,
      "Read": 7295,
      "Ġpull": 7296,
      "Ġgear": 7297,
      "Ġstick": 7298,
      "ĠWrit": 7299,
      "Ġwheat": 7300,
      "Ġarray": 7301,
      "Ġsurge": 7302,
      "Ġ43": 7303,
      "ollowing": 7304,
      "Ġseeking": 7305,
      "Ġserving": 7306,
      "Ġ1992": 7307,
      "Ġclassification": 7308,
      "Ġpointed": 7309,
      "Ġcircle": 7310,
      "ĠCorpor": 7311,
      "Ġcategories": 7312,
      "Ġbehaviour": 7313,
      "Ġcontemporary": 7314,
      "Go": 7315,
      "IR": 7316,
      "hop": 7317,
      "ivery": 7318,
      "ĠTown": 7319,
      "irt": 7320,
      "ods": 7321,
      "ĠFigure": 7322,
      "ocated": 7323,
      "ĠLos": 7324,
      "ĠLib": 7325,
      "elled": 7326,
      "Ġplot": 7327,
      "Ġplain": 7328,
      "Ġadvert": 7329,
      "Ġblind": 7330,
      "Ġinterface": 7331,
      "2012": 7332,
      "Ġguard": 7333,
      "Ġaddressed": 7334,
      "Ġlogic": 7335,
      "Ġviruses": 7336,
      "ĠServer": 7337,
      "Ġpilot": 7338,
      "Ġnewspaper": 7339,
      "health": 7340,
      "Ġgiant": 7341,
      "oples": 7342,
      "umer": 7343,
      "Ġsevent": 7344,
      "ipedia": 7345,
      "ĠKent": 7346,
      "Ġ34": 7347,
      "Ġconserv": 7348,
      "issipp": 7349,
      "Ġdomain": 7350,
      "Ġsettings": 7351,
      "Ġvegetation": 7352,
      "Ġdemonstrate": 7353,
      "Ġhydrogen": 7354,
      "Ġspectrum": 7355,
      "Ġfertil": 7356,
      "Ġlifestyle": 7357,
      "Ġov": 7358,
      "isd": 7359,
      "Ġinternet": 7360,
      "Ġnom": 7361,
      "imm": 7362,
      "ĠCur": 7363,
      "ĠCap": 7364,
      "antine": 7365,
      "ĠFind": 7366,
      "Ġevident": 7367,
      "Ġconcerning": 7368,
      "Ġarguments": 7369,
      "Ġmathematics": 7370,
      "Ġsenior": 7371,
      "Ġinflammation": 7372,
      "96": 7373,
      "Ġpair": 7374,
      "Ġfurn": 7375,
      "roat": 7376,
      "ilation": 7377,
      "ĠAL": 7378,
      "ĠAz": 7379,
      "ĠAcc": 7380,
      "adder": 7381,
      "Ġexhaust": 7382,
      "ĠEr": 7383,
      "inson": 7384,
      "Ġowned": 7385,
      "Ġesc": 7386,
      "Ġconstructed": 7387,
      "ĠSenate": 7388,
      "Ġglucose": 7389,
      "HS": 7390,
      "Med": 7391,
      "iary": 7392,
      "Ġvel": 7393,
      "itivity": 7394,
      "Ġmand": 7395,
      "aints": 7396,
      "Ġshop": 7397,
      "asses": 7398,
      "Ġshoulder": 7399,
      "forest": 7400,
      "Ġboost": 7401,
      "ĠGoogle": 7402,
      "Ġfishing": 7403,
      "Ġquarter": 7404,
      "Ġconcluded": 7405,
      "Ġbiof": 7406,
      "Ġremarkable": 7407,
      "MA": 7408,
      "eness": 7409,
      "ĠHy": 7410,
      "umps": 7411,
      "ĠFred": 7412,
      "Ġintest": 7413,
      "Ġbutter": 7414,
      "Ġflour": 7415,
      "Ġmodified": 7416,
      "century": 7417,
      "Ġwarning": 7418,
      "Ġobjectives": 7419,
      "Ġescape": 7420,
      "Ġlayers": 7421,
      "Ġcompetition": 7422,
      "Ġsubsequent": 7423,
      "Add": 7424,
      "was": 7425,
      "Ġturning": 7426,
      "Ġbridge": 7427,
      "Ġhosp": 7428,
      "Ġalle": 7429,
      "ude": 7430,
      "Ġpartner": 7431,
      "ailed": 7432,
      "Ġdesire": 7433,
      "Ġcorrel": 7434,
      "Ġrealize": 7435,
      "Ġengineers": 7436,
      "Ġtransmitted": 7437,
      "Ġfavorite": 7438,
      "athered": 7439,
      "Ġfisher": 7440,
      "Ġtow": 7441,
      "ĠSil": 7442,
      "Ġongoing": 7443,
      "ĠMer": 7444,
      "ĠMach": 7445,
      "Ġstatements": 7446,
      "ranean": 7447,
      "Ġmeasuring": 7448,
      "Ġhappy": 7449,
      "Ġcommunications": 7450,
      "Ġsuffered": 7451,
      "Ġuncertain": 7452,
      "Ġsacred": 7453,
      "ĠAvoid": 7454,
      "ĠMicrosoft": 7455,
      "Ġkilomet": 7456,
      "Ġdiameter": 7457,
      "Ġunusual": 7458,
      "02": 7459,
      "Ġtaste": 7460,
      "ilib": 7461,
      "ceans": 7462,
      "ĠMS": 7463,
      "opl": 7464,
      "ĠHill": 7465,
      "ĠWal": 7466,
      "Ġcancers": 7467,
      "ogs": 7468,
      "Ġartificial": 7469,
      "azon": 7470,
      "Ġpreventing": 7471,
      "rolled": 7472,
      "Ġvariations": 7473,
      "Ġevolutionary": 7474,
      "Ġphenomenon": 7475,
      "ĠCheck": 7476,
      "Ġclothing": 7477,
      "isk": 7478,
      "Ġbrows": 7479,
      "ounce": 7480,
      "Ġdream": 7481,
      "Ġdimens": 7482,
      "Ġexclus": 7483,
      "ograp": 7484,
      "ildren": 7485,
      "Ġacids": 7486,
      "arents": 7487,
      "Ġwalking": 7488,
      "Ġjourney": 7489,
      "Ġerrors": 7490,
      "ĠColorado": 7491,
      "People": 7492,
      "GS": 7493,
      "kl": 7494,
      "arks": 7495,
      "Ġmice": 7496,
      "icious": 7497,
      "Ġlake": 7498,
      "ĠSeveral": 7499,
      "eling": 7500,
      "Ġneck": 7501,
      "Ġ1930": 7502,
      "Ġphosph": 7503,
      "olds": 7504,
      "Ġdetection": 7505,
      "Ġexplo": 7506,
      "roduction": 7507,
      "Ġpropag": 7508,
      "Ġsentence": 7509,
      "Ġcopyright": 7510,
      "ĠPolicy": 7511,
      "Don": 7512,
      "gers": 7513,
      "rite": 7514,
      "Ġmur": 7515,
      "adel": 7516,
      "Ġprosp": 7517,
      "ĠPM": 7518,
      "ĠThree": 7519,
      "Ġ55": 7520,
      "Ġclassical": 7521,
      "Ġequally": 7522,
      "Ġburning": 7523,
      "Ġvictory": 7524,
      "Ġdependent": 7525,
      "ĠMaryland": 7526,
      ".).": 7527,
      "Even": 7528,
      "omer": 7529,
      "Ġ(\"": 7530,
      "ĠMult": 7531,
      "ifice": 7532,
      "ĠHindu": 7533,
      "ĠGrand": 7534,
      "ĠLar": 7535,
      "Ġshif": 7536,
      "Ġworry": 7537,
      "ube": 7538,
      "Ġrefuge": 7539,
      "Ġhardware": 7540,
      "Ġmicrosc": 7541,
      "82": 7542,
      "making": 7543,
      "zona": 7544,
      "Ġbath": 7545,
      "Ġment": 7546,
      "Ġreven": 7547,
      "utation": 7548,
      "ĠIV": 7549,
      "ĠHave": 7550,
      "iva": 7551,
      "Ġusage": 7552,
      "Ġcomposition": 7553,
      "oyage": 7554,
      "Ġreader": 7555,
      "Ġdirectory": 7556,
      "Ġlisten": 7557,
      "aneously": 7558,
      "Ġdamaged": 7559,
      "Ġseparated": 7560,
      "Ġvirtual": 7561,
      "ĠMarsh": 7562,
      "ĠFinally": 7563,
      "Ġcomplicated": 7564,
      "forcement": 7565,
      "%.": 7566,
      "oids": 7567,
      "esides": 7568,
      "ĠGall": 7569,
      "Ġpreced": 7570,
      "ontal": 7571,
      "ĠAsk": 7572,
      "Ġcalling": 7573,
      "Ġdesigns": 7574,
      "Ġpsychological": 7575,
      "Ġmolecular": 7576,
      "Ġelsewhere": 7577,
      "ĠMississipp": 7578,
      "Ġupdated": 7579,
      "ĠVietnam": 7580,
      "?âĢĿ": 7581,
      "UL": 7582,
      "ini": 7583,
      "Ġpale": 7584,
      "Ġreaching": 7585,
      "Ġgases": 7586,
      "etime": 7587,
      "eli": 7588,
      "Ġitem": 7589,
      "Ġhence": 7590,
      "Ġchair": 7591,
      "onsin": 7592,
      "Ġtranslation": 7593,
      "Ġmyst": 7594,
      "Ġlighting": 7595,
      "Ġthreatened": 7596,
      "Hz": 7597,
      "John": 7598,
      "pd": 7599,
      "icide": 7600,
      "asy": 7601,
      "Ġstones": 7602,
      "abeth": 7603,
      "Ġvig": 7604,
      "Ġevolved": 7605,
      "Ġproven": 7606,
      "Ġ400": 7607,
      "Ġcourts": 7608,
      "Ġplayers": 7609,
      "Ġviewed": 7610,
      "isconsin": 7611,
      "Ġfinished": 7612,
      "Ġcharacterized": 7613,
      "----": 7614,
      "Ġasking": 7615,
      "ĠByz": 7616,
      "ĠTemple": 7617,
      "ĠStuart": 7618,
      "oir": 7619,
      "vation": 7620,
      "enger": 7621,
      "orus": 7622,
      "ĠSar": 7623,
      "amination": 7624,
      "ĠPy": 7625,
      "aked": 7626,
      "ĠChapter": 7627,
      "rowing": 7628,
      "erman": 7629,
      "ĠForce": 7630,
      "Ġsignificance": 7631,
      "Ġinjuries": 7632,
      "ĠKeep": 7633,
      "Su": 7634,
      "after": 7635,
      "orse": 7636,
      "orian": 7637,
      "Ġfed": 7638,
      "Ġmile": 7639,
      "Ġalph": 7640,
      "ĠBig": 7641,
      "eren": 7642,
      "Ġdose": 7643,
      "Ġcompare": 7644,
      "Ġtract": 7645,
      "Ġplayer": 7646,
      "Ġvoltage": 7647,
      "ĠReference": 7648,
      "Ġdramatic": 7649,
      "PC": 7650,
      "non": 7651,
      "Ġhorses": 7652,
      "ĠSometimes": 7653,
      "Ġcham": 7654,
      "Ġjur": 7655,
      "Ġagents": 7656,
      "Ġinterior": 7657,
      "Ġcarb": 7658,
      "Ġauthent": 7659,
      "Ġconsidering": 7660,
      "ounter": 7661,
      "Ġmatch": 7662,
      "Ġwindows": 7663,
      "Ġabsence": 7664,
      "Ġinvestigation": 7665,
      "Ġpartnership": 7666,
      "ĠHistorical": 7667,
      "Ġimplications": 7668,
      "Ġhypothesis": 7669,
      "ilibrium": 7670,
      ".),": 7671,
      "08": 7672,
      "Ġcotton": 7673,
      "ani": 7674,
      "ĠLo": 7675,
      "Ġdesired": 7676,
      "Ġacres": 7677,
      "Ġparticle": 7678,
      "Ġcharged": 7679,
      "Ġdirected": 7680,
      "Ġheads": 7681,
      "regular": 7682,
      "Ġfarming": 7683,
      "Ġheavily": 7684,
      "Ġmagnitude": 7685,
      "Ġlungs": 7686,
      "urricane": 7687,
      "Ġhusband": 7688,
      "Per": 7689,
      "bra": 7690,
      "Ġmac": 7691,
      "Ġbeach": 7692,
      "ĠTake": 7693,
      "ĠOl": 7694,
      "Ġkne": 7695,
      "Ġresid": 7696,
      "neum": 7697,
      "Ġsheet": 7698,
      "Ġadvis": 7699,
      "Ġwriters": 7700,
      "Ġfacing": 7701,
      "Ġresearcher": 7702,
      "Ġdifficulties": 7703,
      "ĠAgain": 7704,
      "ĠMoreover": 7705,
      "Ġsharp": 7706,
      "Ġsubstantial": 7707,
      "ĠFederation": 7708,
      "ĠâĨĳ": 7709,
      "Comm": 7710,
      "Hist": 7711,
      "Ġwisdom": 7712,
      "rive": 7713,
      "oked": 7714,
      "Ġoffspring": 7715,
      "Ġeveryday": 7716,
      "Ġgrows": 7717,
      "Ġequation": 7718,
      "Ġunto": 7719,
      "being": 7720,
      "Ġconsideration": 7721,
      "Ġregarded": 7722,
      "Ġirrig": 7723,
      "ĠProtection": 7724,
      "Ġprayer": 7725,
      "Ġchannel": 7726,
      "ĠAlexander": 7727,
      "eh": 7728,
      "Â©": 7729,
      "isition": 7730,
      "Ġfest": 7731,
      "Ġfulf": 7732,
      "ĠCurrent": 7733,
      "ĠFar": 7734,
      "ĠNut": 7735,
      "ogy": 7736,
      "pled": 7737,
      "Ġspecified": 7738,
      "Ġourselves": 7739,
      "Ġsupplements": 7740,
      "Ġdefault": 7741,
      "agnetic": 7742,
      "Ġidentification": 7743,
      "Ġirrit": 7744,
      "Ġangle": 7745,
      "ĠSpecies": 7746,
      "Ġmissing": 7747,
      "iotics": 7748,
      "Ġduty": 7749,
      "Ġbleeding": 7750,
      "otherapy": 7751,
      "Ġlagoon": 7752,
      "olves": 7753,
      "ĠMa": 7754,
      "ĠPoint": 7755,
      "Ġoverw": 7756,
      "awn": 7757,
      "uesday": 7758,
      "onomy": 7759,
      "Ġmusical": 7760,
      "Ġliterary": 7761,
      "Ġinteractive": 7762,
      "Ġtrends": 7763,
      "63": 7764,
      "gence": 7765,
      "Ġfashion": 7766,
      "ĠCorn": 7767,
      "Ġchlor": 7768,
      "unicip": 7769,
      "apse": 7770,
      "Ġprey": 7771,
      "Ġunw": 7772,
      "ovascular": 7773,
      "ĠRehnquist": 7774,
      "Ġminute": 7775,
      "Ġcareful": 7776,
      "ĠHealthwise": 7777,
      "Ġclaimed": 7778,
      "Ġcopies": 7779,
      "ĠIrving": 7780,
      "Ġmathematical": 7781,
      "Im": 7782,
      "Lear": 7783,
      "Pre": 7784,
      "sun": 7785,
      "Ġfasc": 7786,
      "Ġmg": 7787,
      "ician": 7788,
      "ĠSound": 7789,
      "Ġorient": 7790,
      "Ġven": 7791,
      "ĠForm": 7792,
      "ells": 7793,
      "asty": 7794,
      "Ġadvent": 7795,
      "Ġdelivery": 7796,
      "ĠOrig": 7797,
      "Ġoptical": 7798,
      "Ġemployees": 7799,
      "ĠDavis": 7800,
      "Ġpanel": 7801,
      "Ġmanufacturers": 7802,
      "ĠAgriculture": 7803,
      "abulary": 7804,
      "BM": 7805,
      "itches": 7806,
      "ano": 7807,
      "idity": 7808,
      "ĠCat": 7809,
      "ĠPage": 7810,
      "usal": 7811,
      "ĠâĢ¦": 7812,
      "Ġcontents": 7813,
      "velength": 7814,
      "achuse": 7815,
      "ieval": 7816,
      "Ġ33": 7817,
      "Ġrose": 7818,
      "Ġexped": 7819,
      "Ġadds": 7820,
      "Ġconfidence": 7821,
      "Ġdirections": 7822,
      "Ġbene": 7823,
      "Ġeru": 7824,
      "Ġinitially": 7825,
      "ART": 7826,
      "Ġconversation": 7827,
      "CT": 7828,
      "she": 7829,
      "tts": 7830,
      "Ġcaught": 7831,
      "itual": 7832,
      "icy": 7833,
      "Ġlymph": 7834,
      "ĠCA": 7835,
      "ulpt": 7836,
      "ĠLiter": 7837,
      "ogether": 7838,
      "Ġsimult": 7839,
      "Ġentit": 7840,
      "Ġtreating": 7841,
      "Ġbehavioral": 7842,
      "ĠSecurity": 7843,
      "Ġbringing": 7844,
      "Ġencouraged": 7845,
      "Health": 7846,
      "Ġconstantly": 7847,
      "Ġaudio": 7848,
      "Ġbranch": 7849,
      "ĠTurk": 7850,
      "ĠArizona": 7851,
      "Ġenormous": 7852,
      "52": 7853,
      "iÃ": 7854,
      "Ġrely": 7855,
      "ĠTop": 7856,
      "Ġsup": 7857,
      "ĠWhe": 7858,
      "ĠWisconsin": 7859,
      "ĠDown": 7860,
      "ĠEff": 7861,
      "Ġabstract": 7862,
      "Ġclock": 7863,
      "Ġthanks": 7864,
      "Ġrelie": 7865,
      "ypes": 7866,
      "Ġindigenous": 7867,
      "Ġdecor": 7868,
      "Ġassume": 7869,
      "ĠSpring": 7870,
      "Ġcrew": 7871,
      "Ġthoughts": 7872,
      "iterranean": 7873,
      "Ġessay": 7874,
      "Ġheaven": 7875,
      "Ġmechanical": 7876,
      "ĠIrish": 7877,
      "Ġevaluate": 7878,
      "Ġpreparation": 7879,
      "Ġmembrane": 7880,
      "Ġaccompanied": 7881,
      "ĠMississippi": 7882,
      "achusetts": 7883,
      "uits": 7884,
      "itamin": 7885,
      "Ġholy": 7886,
      "Ġelder": 7887,
      "Ġreverse": 7888,
      "Ġstre": 7889,
      "Ġwithd": 7890,
      "ĠMid": 7891,
      "Ġdeleg": 7892,
      "illance": 7893,
      "Ġnotion": 7894,
      "outheast": 7895,
      "izabeth": 7896,
      "Ġ1920": 7897,
      "Ġprogramme": 7898,
      "ĠPlant": 7899,
      "2008": 7900,
      "Ġrespectively": 7901,
      "Ġautomatically": 7902,
      "Ġguidance": 7903,
      "Ġcomplications": 7904,
      "59": 7905,
      "host": 7906,
      "Ġflying": 7907,
      "ĠCre": 7908,
      "Ġorbit": 7909,
      "Ġdealing": 7910,
      "ĠBab": 7911,
      "osqu": 7912,
      "ĠEp": 7913,
      "ĠNon": 7914,
      "ĠNever": 7915,
      "ubble": 7916,
      "ĠKar": 7917,
      "ĠYear": 7918,
      "Ġ48": 7919,
      "Ġcalories": 7920,
      "Ġinteractions": 7921,
      "Ġremoval": 7922,
      "Ġdefinite": 7923,
      "ĠUpd": 7924,
      "Ġfifth": 7925,
      "Ġcandidate": 7926,
      "Ġbeneath": 7927,
      "Com": 7928,
      "Col": 7929,
      "Ġsulf": 7930,
      "Ġholid": 7931,
      "Ġlosing": 7932,
      "ĠAIDS": 7933,
      "Ġalive": 7934,
      "this": 7935,
      "Ġdism": 7936,
      "Ġpresents": 7937,
      "ĠProclus": 7938,
      "Ġentering": 7939,
      "coming": 7940,
      "Ġlowest": 7941,
      "riday": 7942,
      "Ġhappening": 7943,
      "Ġestablishment": 7944,
      "Ġharmful": 7945,
      "ĠImm": 7946,
      "ĠAngeles": 7947,
      "Post": 7948,
      "cut": 7949,
      "yer": 7950,
      "ĠÎ": 7951,
      "Ġtons": 7952,
      "itarian": 7953,
      "Ġpian": 7954,
      "Ġforg": 7955,
      "ĠCT": 7956,
      "Ġconj": 7957,
      "ĠFact": 7958,
      "ĠStan": 7959,
      "Ġthereby": 7960,
      "Ġcorner": 7961,
      "Ġtempor": 7962,
      "ĠPlat": 7963,
      "Ġstronger": 7964,
      "Ġfairly": 7965,
      "Ġelevated": 7966,
      "Or": 7967,
      "gent": 7968,
      "mble": 7969,
      "Ġod": 7970,
      "Ġpush": 7971,
      "ĠTr": 7972,
      "ette": 7973,
      "ĠClick": 7974,
      "ĠLew": 7975,
      "Ġgenus": 7976,
      "ĠTeac": 7977,
      "ĠManuel": 7978,
      "Ġbigger": 7979,
      "Ġstrengthen": 7980,
      "itzer": 7981,
      "Ġstimul": 7982,
      "also": 7983,
      "ĠDiff": 7984,
      "ĠStar": 7985,
      "Ġmaybe": 7986,
      "erty": 7987,
      "Ġtemporary": 7988,
      "Ġswim": 7989,
      "Ġversions": 7990,
      "Ġmothers": 7991,
      "Ġgraduate": 7992,
      "ĠSystems": 7993,
      "Ġcooking": 7994,
      "ĠOpen": 7995,
      "Ġmoisture": 7996,
      "56": 7997,
      "uum": 7998,
      "inite": 7999,
      "ĠAst": 8000,
      "ĠAction": 8001,
      "ĠSund": 8002,
      "irth": 8003,
      "ĠMu": 8004,
      "ĠThough": 8005,
      "ĠKore": 8006,
      "Ġphilosop": 8007,
      "plete": 8008,
      "Ġpolar": 8009,
      "ĠCentre": 8010,
      "nedy": 8011,
      "Ġindustries": 8012,
      "Ġdriver": 8013,
      "Ġutility": 8014,
      "Ġpoetry": 8015,
      "ĠDistrict": 8016,
      "Ġempty": 8017,
      "Ġillegal": 8018,
      "mia": 8019,
      "rat": 8020,
      "tension": 8021,
      "Ġtut": 8022,
      "Ġpace": 8023,
      "Ġfath": 8024,
      "Ġdating": 8025,
      "Ġbeat": 8026,
      "sets": 8027,
      "ĠCreat": 8028,
      "about": 8029,
      "endar": 8030,
      "Ġsched": 8031,
      "ologically": 8032,
      "Ġgenome": 8033,
      "Ġpersonality": 8034,
      "Ġcontinuing": 8035,
      "Ġoccurring": 8036,
      "Ġopposition": 8037,
      "Ġaccessible": 8038,
      "ĠJohnson": 8039,
      "OL": 8040,
      "sue": 8041,
      "uity": 8042,
      "Ġsoph": 8043,
      "ĠCross": 8044,
      "iratory": 8045,
      "ĠPen": 8046,
      "isting": 8047,
      "ĠBern": 8048,
      "ĠDC": 8049,
      "ĠFire": 8050,
      "oga": 8051,
      "Ġintent": 8052,
      "Ġmarks": 8053,
      "Ġplanted": 8054,
      "Ġlinear": 8055,
      "regon": 8056,
      "Ġargue": 8057,
      "ĠContin": 8058,
      "Ġconcentrations": 8059,
      "Ġinspired": 8060,
      "ĠAfghanistan": 8061,
      "DS": 8062,
      "IM": 8063,
      "iat": 8064,
      "Ġintern": 8065,
      "ĠBack": 8066,
      "ĠDoc": 8067,
      "aks": 8068,
      "Ġbutton": 8069,
      "Ġarts": 8070,
      "ĠVen": 8071,
      "phia": 8072,
      "Ġresemb": 8073,
      "Ġdemands": 8074,
      "Ġbelieves": 8075,
      "Ġprofile": 8076,
      "Ġreviewed": 8077,
      "ĠMinister": 8078,
      "ĠMassachusetts": 8079,
      "Ġalgorithm": 8080,
      "Ġweapons": 8081,
      "Let": 8082,
      "iological": 8083,
      "Ġfellow": 8084,
      "Ġrecept": 8085,
      "Ġye": 8086,
      "Ġorb": 8087,
      "ĠMormon": 8088,
      "ĠBC": 8089,
      "Ġseat": 8090,
      "ĠLy": 8091,
      "Ġdisk": 8092,
      "endment": 8093,
      "ĠKh": 8094,
      "Ġsubstit": 8095,
      "Ġdiag": 8096,
      "Ġcapabilities": 8097,
      "Ġrepresentatives": 8098,
      "Ġ1940": 8099,
      "Ġvertical": 8100,
      "Ġvirtually": 8101,
      "Ġsaved": 8102,
      "Sm": 8103,
      "ouri": 8104,
      "Ġnose": 8105,
      "ĠTom": 8106,
      "Ġvan": 8107,
      "ĠNob": 8108,
      "Ġoutcome": 8109,
      "ĠUnfortunately": 8110,
      "Ġdesert": 8111,
      "Ġhealthcare": 8112,
      "ĠAlaska": 8113,
      "Ġstrings": 8114,
      "Ġengaged": 8115,
      "Ġfunctional": 8116,
      "Ġburied": 8117,
      "Ġpriority": 8118,
      "Ġaudience": 8119,
      "Ġinnovative": 8120,
      "ĠSafety": 8121,
      "adelphia": 8122,
      "98": 8123,
      "EE": 8124,
      "bes": 8125,
      "anc": 8126,
      "ĠWorks": 8127,
      "Ġru": 8128,
      "Ġcontribution": 8129,
      "angle": 8130,
      "ĠArctic": 8131,
      "Ġdipl": 8132,
      "Ġserves": 8133,
      "Ġreduces": 8134,
      "Ġbiom": 8135,
      "Ġfunded": 8136,
      "Ġemployment": 8137,
      "Ġwavelength": 8138,
      "Ġexhibit": 8139,
      "ĠRelig": 8140,
      "Ġcustomers": 8141,
      "Ġecosystems": 8142,
      "Ġnitrogen": 8143,
      "Ġmixture": 8144,
      "Every": 8145,
      "IG": 8146,
      "Ref": 8147,
      "lav": 8148,
      "Ġdense": 8149,
      "ĠSat": 8150,
      "âĢĺ": 8151,
      "abs": 8152,
      "agle": 8153,
      "ruption": 8154,
      "ĠChange": 8155,
      "onday": 8156,
      "Ġdiffer": 8157,
      "Ġpreserved": 8158,
      "Ġglac": 8159,
      "ĠEdward": 8160,
      "brew": 8161,
      "Ġthreats": 8162,
      "Ġsilver": 8163,
      "Ġgirl": 8164,
      "ĠHawai": 8165,
      "2000": 8166,
      "brid": 8167,
      "just": 8168,
      "law": 8169,
      "Ġfro": 8170,
      "Ġfur": 8171,
      "ĠTenn": 8172,
      "imp": 8173,
      "Ġstuff": 8174,
      "Ġpros": 8175,
      "ĠMic": 8176,
      "through": 8177,
      "Ġdeeper": 8178,
      "ĠBus": 8179,
      "ĠGar": 8180,
      "ĠLin": 8181,
      "ecess": 8182,
      "Ġpeoples": 8183,
      "Ġtheme": 8184,
      "Ġattributes": 8185,
      "Ġgrace": 8186,
      "Ġequilibrium": 8187,
      "Ġparas": 8188,
      "Ġattempted": 8189,
      "ĠDespite": 8190,
      "ĠKennedy": 8191,
      "Ġgalax": 8192,
      "CH": 8193,
      "mat": 8194,
      "action": 8195,
      "Ġ1900": 8196,
      "Ġarrest": 8197,
      "Ġinfants": 8198,
      "Ġ44": 8199,
      "Ġinterm": 8200,
      "Ġinvasion": 8201,
      "Ġpersonnel": 8202,
      "Ġidentical": 8203,
      "2009": 8204,
      "shaped": 8205,
      "Ġtowns": 8206,
      "Ġexecutive": 8207,
      "ĠProtest": 8208,
      "Ġchannels": 8209,
      "Copyright": 8210,
      "sk": 8211,
      "you": 8212,
      "zer": 8213,
      "Ġcort": 8214,
      "iture": 8215,
      "owa": 8216,
      "Ġstorms": 8217,
      "Ġatomic": 8218,
      "ĠFil": 8219,
      "Ġsoy": 8220,
      "Ġquiet": 8221,
      "Ġaged": 8222,
      "uality": 8223,
      "Ġmineral": 8224,
      "ĠResp": 8225,
      "Ġoldest": 8226,
      "Ġassociate": 8227,
      "ĠCarib": 8228,
      "Ġfocuses": 8229,
      "Ġcovering": 8230,
      "Ġsequences": 8231,
      "Comp": 8232,
      "Le": 8233,
      "Today": 8234,
      "western": 8235,
      "Ġ~": 8236,
      "onents": 8237,
      "Ġsales": 8238,
      "Ġpestic": 8239,
      "alysis": 8240,
      "Ġnice": 8241,
      "eless": 8242,
      "ador": 8243,
      "ĠMeth": 8244,
      "ĠWord": 8245,
      "una": 8246,
      "Ġsport": 8247,
      "Ġscope": 8248,
      "ĠMediterranean": 8249,
      "Ġexisted": 8250,
      "Ġtraditions": 8251,
      "Ġwinds": 8252,
      "Ġflows": 8253,
      "Ġrepresentative": 8254,
      "Ġannually": 8255,
      "Ġsampling": 8256,
      "Ġreturns": 8257,
      "ascus": 8258,
      "ĠBooks": 8259,
      "Ġacquired": 8260,
      "Ġexcessive": 8261,
      "NR": 8262,
      "kind": 8263,
      "writ": 8264,
      "orters": 8265,
      "Ġbrand": 8266,
      "Ġfraction": 8267,
      "ĠSon": 8268,
      "ĠCook": 8269,
      "Ġranges": 8270,
      "ĠLuther": 8271,
      "play": 8272,
      "Ġsculpt": 8273,
      "Ġsurg": 8274,
      "Ġearn": 8275,
      "icted": 8276,
      "Ġskill": 8277,
      "Ġplanets": 8278,
      "ĠCentury": 8279,
      "ospel": 8280,
      "ĠClark": 8281,
      "Ġfalling": 8282,
      "Ġstatistics": 8283,
      "Ġprotecting": 8284,
      "ĠPrinc": 8285,
      "ĠSuper": 8286,
      "Ġstopped": 8287,
      "ceedings": 8288,
      "ĠCOP": 8289,
      "She": 8290,
      "Ġcensus": 8291,
      "Ġthread": 8292,
      "ĠAM": 8293,
      "Ġstyles": 8294,
      "uma": 8295,
      "ĠDrug": 8296,
      "ĠField": 8297,
      "ĠNuclear": 8298,
      "ocy": 8299,
      "ĠGreg": 8300,
      "Ġclar": 8301,
      "lected": 8302,
      "Ġdistinction": 8303,
      "ĠMarine": 8304,
      "Ġfatal": 8305,
      "ĠObama": 8306,
      "Ġdistinguish": 8307,
      "Ġdynamic": 8308,
      "Ġhazard": 8309,
      "Scient": 8310,
      "rint": 8311,
      "Ġtill": 8312,
      "Ġfix": 8313,
      "elve": 8314,
      "ady": 8315,
      "Ġwhales": 8316,
      "Ġseg": 8317,
      "Ġchose": 8318,
      "ocial": 8319,
      "Ġworst": 8320,
      "Ġunion": 8321,
      "Ġimpair": 8322,
      "ĠVer": 8323,
      "Ġroles": 8324,
      "Ġroads": 8325,
      "ĠProble": 8326,
      "Ġdetected": 8327,
      "Ġgray": 8328,
      "Ġofficers": 8329,
      "Ġcollections": 8330,
      "ĠQuest": 8331,
      "ĠPhiladelphia": 8332,
      "Ġphrase": 8333,
      "Ġathlet": 8334,
      "Ġfathoms": 8335,
      "rox": 8336,
      "Ġforget": 8337,
      "ĠMain": 8338,
      "Ġplenty": 8339,
      "asts": 8340,
      "Ġincident": 8341,
      "Ġdisabilities": 8342,
      "iph": 8343,
      "ieth": 8344,
      "Ġinstances": 8345,
      "Ġdistant": 8346,
      "ocket": 8347,
      "Ġboat": 8348,
      "ĠMedia": 8349,
      "Ġobserve": 8350,
      "ibraries": 8351,
      "Ġprinting": 8352,
      "Ġcorrectly": 8353,
      "Ġidentifying": 8354,
      "Ġextraord": 8355,
      "Ġcontributed": 8356,
      "Sim": 8357,
      "di": 8358,
      "nov": 8359,
      "names": 8360,
      "ritional": 8361,
      "uan": 8362,
      "Ġmir": 8363,
      "iments": 8364,
      "âĢĻ,": 8365,
      "Ġdischarge": 8366,
      "ailability": 8367,
      "Ġartif": 8368,
      "raining": 8369,
      "Ġloose": 8370,
      "scrib": 8371,
      "Ġsuperior": 8372,
      "Ġsettlement": 8373,
      "Ġethical": 8374,
      "Ġdecreased": 8375,
      "Ġarmed": 8376,
      "Ġsemi": 8377,
      "Ġassumed": 8378,
      "Ġhouseholds": 8379,
      "________": 8380,
      "Ġsubsid": 8381,
      "lastname": 8382,
      "Ġbattles": 8383,
      "**": 8384,
      "Eng": 8385,
      "National": 8386,
      "disc": 8387,
      "Â·": 8388,
      "Ġsaving": 8389,
      "Ġbiodiversity": 8390,
      "Ġmine": 8391,
      "Ġgent": 8392,
      "ĠSing": 8393,
      "unc": 8394,
      "ĠOregon": 8395,
      "rue": 8396,
      "ĠStart": 8397,
      "Ġtransplant": 8398,
      "Ġgrains": 8399,
      "Ġtreaty": 8400,
      "Ġlights": 8401,
      "Ġrestric": 8402,
      "acco": 8403,
      "Ġgrounds": 8404,
      "Ġfatty": 8405,
      "Ġvillages": 8406,
      "Ġexhibition": 8407,
      "ĠMountain": 8408,
      "ĠPalest": 8409,
      "Ġdramatically": 8410,
      "ĠHallow": 8411,
      "ustainable": 8412,
      "Ġhospitals": 8413,
      "Part": 8414,
      "iations": 8415,
      "ati": 8416,
      "Ġfinger": 8417,
      "Ġhoney": 8418,
      "ĠMen": 8419,
      "ĠRus": 8420,
      "aren": 8421,
      "Ġknowing": 8422,
      "ĠCenters": 8423,
      "Ġmargin": 8424,
      "Ġrepresentation": 8425,
      "ĠXML": 8426,
      "Ġsettled": 8427,
      "nesota": 8428,
      "Ġbatteries": 8429,
      "ĠEngineering": 8430,
      "68": 8431,
      "RL": 8432,
      "pre": 8433,
      "press": 8434,
      "Ġpill": 8435,
      "Ġhob": 8436,
      "olving": 8437,
      "sell": 8438,
      "ĠSolar": 8439,
      "Ġanest": 8440,
      "Ġscore": 8441,
      "Ġrepair": 8442,
      "iously": 8443,
      "Ġassert": 8444,
      "awa": 8445,
      "Ġinterventions": 8446,
      "ommod": 8447,
      "Ġendangered": 8448,
      "Ġ1991": 8449,
      "Ġcaps": 8450,
      "Ġanalys": 8451,
      "Ġboundary": 8452,
      "Ġbeauty": 8453,
      "Ġstreams": 8454,
      "Ġeliminate": 8455,
      "Ġsuddenly": 8456,
      "Ġphotographs": 8457,
      "Ġlecture": 8458,
      "ĠJacob": 8459,
      "Ġoverwhel": 8460,
      "61": 8461,
      "Before": 8462,
      "Click": 8463,
      "gon": 8464,
      "oom": 8465,
      "Ġwat": 8466,
      "ĠDate": 8467,
      "ĠLater": 8468,
      "astro": 8469,
      "rene": 8470,
      "ysical": 8471,
      "Ġsubt": 8472,
      "ĠArm": 8473,
      "Ġdiarr": 8474,
      "mann": 8475,
      "Ġpainful": 8476,
      "Ġdrinks": 8477,
      "Ġtargets": 8478,
      "Ġurine": 8479,
      "ĠSimilar": 8480,
      "Ġgravity": 8481,
      "Ġoccasionally": 8482,
      "osquit": 8483,
      "hus": 8484,
      "Ġ||": 8485,
      "Ġsitting": 8486,
      "oline": 8487,
      "ĠAT": 8488,
      "iry": 8489,
      "oding": 8490,
      "Ġsees": 8491,
      "ĠLat": 8492,
      "agraph": 8493,
      "Ġcooperation": 8494,
      "Ġsmooth": 8495,
      "Ġcounties": 8496,
      "Ġengines": 8497,
      "Ġpredators": 8498,
      "ĠWilliams": 8499,
      "Ġcalculated": 8500,
      "Ġboundaries": 8501,
      "Ġinitiative": 8502,
      "Art": 8503,
      "Ġphenomena": 8504,
      "Ġacknowled": 8505,
      "Ġoceans": 8506,
      "rob": 8507,
      "ometer": 8508,
      "ĠSO": 8509,
      "Ġvot": 8510,
      "ĠDictionary": 8511,
      "ivest": 8512,
      "Ġimaging": 8513,
      "Ġincidence": 8514,
      "ublished": 8515,
      "Ġinfect": 8516,
      "anger": 8517,
      "Ġ37": 8518,
      "Ġoffering": 8519,
      "ĠHebrew": 8520,
      "Ġelectro": 8521,
      "Ġtrem": 8522,
      "ĠChristians": 8523,
      "Ġirregular": 8524,
      "Ġwaiting": 8525,
      "Ġjudge": 8526,
      "Ġphilosophical": 8527,
      "Ġhorizontal": 8528,
      "Ġsacrifice": 8529,
      "51": 8530,
      "DL": 8531,
      "Ne": 8532,
      "cence": 8533,
      "Ġtor": 8534,
      "Ġsizes": 8535,
      "Ġpneum": 8536,
      "Ġfuels": 8537,
      "ĠIran": 8538,
      "ifier": 8539,
      "ĠPine": 8540,
      "Ġranging": 8541,
      "Ġcompens": 8542,
      "Ġoutd": 8543,
      "angel": 8544,
      "Ġregulatory": 8545,
      "Ġcoverage": 8546,
      "Ġgenerator": 8547,
      "Ġrequiring": 8548,
      "ĠIndepend": 8549,
      "Ġparks": 8550,
      "who": 8551,
      "Ġsensitivity": 8552,
      "Ġverb": 8553,
      "Ġtribes": 8554,
      "ineteenth": 8555,
      "Ġconsciousness": 8556,
      "Ġveloc": 8557,
      "Car": 8558,
      "EF": 8559,
      "itative": 8560,
      "ĠSet": 8561,
      "ĠMur": 8562,
      "Ġalarm": 8563,
      "Ġritual": 8564,
      "ĠGre": 8565,
      "ĠLu": 8566,
      "apor": 8567,
      "Ġsciences": 8568,
      "ĠKansas": 8569,
      "Ġacting": 8570,
      "Ġremind": 8571,
      "ĠAsian": 8572,
      "eeding": 8573,
      "ĠAllaah": 8574,
      "Ġteams": 8575,
      "ĠBarb": 8576,
      "Ġexecution": 8577,
      "Ġchallenging": 8578,
      "ĠSwed": 8579,
      "ĠPolit": 8580,
      "ĠArea": 8581,
      "Ġemphasis": 8582,
      "Ġhormone": 8583,
      "ycling": 8584,
      "Source": 8585,
      "mus": 8586,
      "po": 8587,
      "sis": 8588,
      "hea": 8589,
      "ref": 8590,
      "Ġshed": 8591,
      "Ġcord": 8592,
      "Ġhidden": 8593,
      "Ġlip": 8594,
      "amins": 8595,
      "ĠBoy": 8596,
      "ĠHand": 8597,
      "ectors": 8598,
      "Ġspin": 8599,
      "Ġscores": 8600,
      "reefs": 8601,
      "ĠUniverse": 8602,
      "Ġflash": 8603,
      "Ġprescribed": 8604,
      "Ġbuff": 8605,
      "Ġoccas": 8606,
      "Ġreporting": 8607,
      "Ġhumanity": 8608,
      "Ġclassified": 8609,
      "Ġdriven": 8610,
      "Ġbeneficial": 8611,
      "Ġtaxes": 8612,
      "ĠElizabeth": 8613,
      "Ġimagine": 8614,
      "Ġexpanded": 8615,
      "Ġgranted": 8616,
      "Ġcomfortable": 8617,
      "Ġinhabit": 8618,
      "Ġdropped": 8619,
      "Ġdimensions": 8620,
      "69": 8621,
      "icular": 8622,
      "Ġles": 8623,
      "Ġconce": 8624,
      "Ġsus": 8625,
      "ĠHT": 8626,
      "ĠFair": 8627,
      "unct": 8628,
      "ĠLess": 8629,
      "ĠOw": 8630,
      "ruit": 8631,
      "Ġ39": 8632,
      "Ġovercome": 8633,
      "Ġelectrons": 8634,
      "Ġdesignated": 8635,
      "2010": 8636,
      "2011": 8637,
      "Ġpractition": 8638,
      "Ġdetermining": 8639,
      "Ġspecialized": 8640,
      "Ġmovie": 8641,
      "Ġdiscussions": 8642,
      "ĠDoes": 8643,
      "Ġanalyzed": 8644,
      "Ġdisplayed": 8645,
      "osaurs": 8646,
      "Ġchromos": 8647,
      "64": 8648,
      "PL": 8649,
      "ban": 8650,
      "page": 8651,
      "Ġbag": 8652,
      "lymp": 8653,
      "rait": 8654,
      "adow": 8655,
      "ĠHung": 8656,
      "ĠLight": 8657,
      "Ġmeals": 8658,
      "Ġaccommod": 8659,
      "Ġanywhere": 8660,
      "Ġacute": 8661,
      "ĠClub": 8662,
      "Ġbarriers": 8663,
      "Ġimprovements": 8664,
      "Ġtelling": 8665,
      "Ġcamps": 8666,
      "Ġlogical": 8667,
      "Ġpsychology": 8668,
      "Ġhabitats": 8669,
      "Ġbegun": 8670,
      "fts": 8671,
      "list": 8672,
      "inces": 8673,
      "Ġpin": 8674,
      "Ġmercury": 8675,
      "asma": 8676,
      "Ġgathered": 8677,
      "racle": 8678,
      "ĠMah": 8679,
      "ĠPap": 8680,
      "ĠNE": 8681,
      "ĠLook": 8682,
      "Ġraising": 8683,
      "Ġvisited": 8684,
      "gener": 8685,
      "Ġ1989": 8686,
      "Ġsensors": 8687,
      "atabases": 8688,
      "Ġsavings": 8689,
      "Ġtrigger": 8690,
      "Ġcommitment": 8691,
      "Ġvocabulary": 8692,
      "800": 8693,
      "aud": 8694,
      "vah": 8695,
      "esis": 8696,
      "Ġpione": 8697,
      "rooms": 8698,
      "Ġhat": 8699,
      "Ġhall": 8700,
      "Ġnarr": 8701,
      "Ġlakes": 8702,
      "uled": 8703,
      "ĠPDF": 8704,
      "ĠNumber": 8705,
      "ĠGr": 8706,
      "Ġpeer": 8707,
      "Ġattitude": 8708,
      "Ġreferences": 8709,
      "Ġvalley": 8710,
      "Ġpublications": 8711,
      "ĠExec": 8712,
      "Ġconsume": 8713,
      "Ġpaying": 8714,
      "Ġpermit": 8715,
      "ĠSmall": 8716,
      "Ġillnesses": 8717,
      "ĠMissouri": 8718,
      "Ġsurprised": 8719,
      "ĠCaribbean": 8720,
      "IF": 8721,
      "RS": 8722,
      "eous": 8723,
      "oys": 8724,
      "Ã¢": 8725,
      "rection": 8726,
      "Ġcul": 8727,
      "ĠTuesday": 8728,
      "otal": 8729,
      "iger": 8730,
      "ĠCop": 8731,
      "riend": 8732,
      "ĠJon": 8733,
      "Ġprovince": 8734,
      "archy": 8735,
      "Ġprocessed": 8736,
      "Ġartist": 8737,
      "Ġminerals": 8738,
      "Ġsocieties": 8739,
      "amps": 8740,
      "Ġfaced": 8741,
      "Ġoccupied": 8742,
      "Ġadvantages": 8743,
      "Ġimmigrants": 8744,
      "Ġmanifest": 8745,
      "Ġentitled": 8746,
      "Ġsophistic": 8747,
      "57": 8748,
      "Where": 8749,
      "Ġturt": 8750,
      "Ġbits": 8751,
      "Ġdies": 8752,
      "rock": 8753,
      "stic": 8754,
      "cho": 8755,
      "Ġash": 8756,
      "tery": 8757,
      "ĠPass": 8758,
      "ĠBan": 8759,
      "Ġshaped": 8760,
      "aping": 8761,
      "Ġpreserve": 8762,
      "ĠIndones": 8763,
      "Ġecological": 8764,
      "Ġpursu": 8765,
      "Ġcharacteristic": 8766,
      "Ġflower": 8767,
      "Ġliterally": 8768,
      "ĠPhilipp": 8769,
      "Ġcontributions": 8770,
      "Ġcorresponding": 8771,
      "ĠStandards": 8772,
      "Ġsplit": 8773,
      "EA": 8774,
      "FC": 8775,
      "TR": 8776,
      "va": 8777,
      "Ġ?": 8778,
      "Ġtick": 8779,
      "Ġwings": 8780,
      "ĠMaterial": 8781,
      "Ġadverse": 8782,
      "ĠStation": 8783,
      "ĠKids": 8784,
      "Ġamazing": 8785,
      "Ġregister": 8786,
      "Ġears": 8787,
      "Ġpubl": 8788,
      "ĠIndeed": 8789,
      "Ġrealized": 8790,
      "Ġprecip": 8791,
      "Ġexclud": 8792,
      "Ġsustainability": 8793,
      "Ġtelephone": 8794,
      "ĠAvailable": 8795,
      "Ġliberal": 8796,
      "Please": 8797,
      "made": 8798,
      "Ġsale": 8799,
      "ila": 8800,
      "Ġreplic": 8801,
      "ĠPur": 8802,
      "ĠBul": 8803,
      "ĠJo": 8804,
      "Ġincred": 8805,
      "ipel": 8806,
      "engers": 8807,
      "Ġguess": 8808,
      "Ġparad": 8809,
      "Ġfilter": 8810,
      "shore": 8811,
      "Ġreasonable": 8812,
      "ĠChristianity": 8813,
      "Ġreveal": 8814,
      "Ġlicense": 8815,
      "Ġelementary": 8816,
      "Ġallergic": 8817,
      "burgh": 8818,
      "Ġspoken": 8819,
      "ĠCorporation": 8820,
      "53": 8821,
      "93": 8822,
      "Ġurg": 8823,
      "onal": 8824,
      "Ġdoses": 8825,
      "uting": 8826,
      "ĠSav": 8827,
      "ĠSQL": 8828,
      "Ġconclus": 8829,
      "ĠMA": 8830,
      "ĠHop": 8831,
      "rix": 8832,
      "ĠDutch": 8833,
      "ĠLie": 8834,
      "Ġenables": 8835,
      "âĢĻ.": 8836,
      "Ġdisrupt": 8837,
      "Ġ42": 8838,
      "Ġrespiratory": 8839,
      "Ġcorals": 8840,
      "ĠArist": 8841,
      "Ġorganism": 8842,
      "Ġemerged": 8843,
      "ĠMinnesota": 8844,
      "Ġaffecting": 8845,
      "Ġreproductive": 8846,
      "Ġwetlands": 8847,
      "operative": 8848,
      "Ġdiscrimination": 8849,
      "ĠGovernor": 8850,
      "hot": 8851,
      "enh": 8852,
      "Ġcab": 8853,
      "Ġdress": 8854,
      "enter": 8855,
      "sts": 8856,
      "ĠSearch": 8857,
      "ĠSaint": 8858,
      "ĠMoses": 8859,
      "Ġrecover": 8860,
      "Ġtechnological": 8861,
      "Ġinsurance": 8862,
      "Ġproductivity": 8863,
      "Ġorigins": 8864,
      "Ġproposal": 8865,
      "Ġstructural": 8866,
      "Ġchemistry": 8867,
      "Ġseparation": 8868,
      "onym": 8869,
      "ĠAmazon": 8870,
      "borne": 8871,
      "ĠParliament": 8872,
      "Ġcatal": 8873,
      "Ġquantities": 8874,
      "Ġscholar": 8875,
      "ĠFrancis": 8876,
      "ĠPhysical": 8877,
      "Ġcriminal": 8878,
      "ivestock": 8879,
      "Cons": 8880,
      "run": 8881,
      "heastern": 8882,
      "icing": 8883,
      "otype": 8884,
      "odox": 8885,
      "ĠEU": 8886,
      "ĠLast": 8887,
      "Ġwheel": 8888,
      "Ġcompound": 8889,
      "thew": 8890,
      "they": 8891,
      "Ġcurve": 8892,
      "Ġconfusion": 8893,
      "Ġadvances": 8894,
      "Ġterror": 8895,
      "ĠFurthermore": 8896,
      "Ġdiscipline": 8897,
      "Ġvolunteers": 8898,
      "ĠScotland": 8899,
      "ocaust": 8900,
      "unicipal": 8901,
      "Each": 8902,
      "bury": 8903,
      "fe": 8904,
      "found": 8905,
      "natural": 8906,
      "rings": 8907,
      "vi": 8908,
      "Ã¤": 8909,
      "reated": 8910,
      "Ġcure": 8911,
      "Ġwise": 8912,
      "Ġmouse": 8913,
      "ctors": 8914,
      "Ġreign": 8915,
      "oli": 8916,
      "ĠSection": 8917,
      "aman": 8918,
      "Ġconvert": 8919,
      "osaur": 8920,
      "ĠFDA": 8921,
      "Ġspoke": 8922,
      "ĠObs": 8923,
      "ĠOlymp": 8924,
      "Ġcomprom": 8925,
      "Ġfirstname": 8926,
      "neys": 8927,
      "Ġexploration": 8928,
      "Ġlegend": 8929,
      "Ġ1984": 8930,
      "Ġfunctioning": 8931,
      "Ġcreatures": 8932,
      "Ġversus": 8933,
      "Ġseasonal": 8934,
      "Ġprecisely": 8935,
      "Ġtherm": 8936,
      "quarters": 8937,
      "ĠPhilosophy": 8938,
      "Ġirrigation": 8939,
      "MP": 8940,
      "Ġ)": 8941,
      "inates": 8942,
      "erts": 8943,
      "itic": 8944,
      "Ġfold": 8945,
      "ethe": 8946,
      "ĠSS": 8947,
      "ĠSqu": 8948,
      "Ġstability": 8949,
      "aming": 8950,
      "Ġorange": 8951,
      "ĠEss": 8952,
      "ĠFriday": 8953,
      "Ġchances": 8954,
      "Ġshoot": 8955,
      "ourse": 8956,
      "dule": 8957,
      "Ġspecimens": 8958,
      "Ġdevelopments": 8959,
      "ĠHead": 8960,
      "Ġregulation": 8961,
      "Ġassault": 8962,
      "Ġreadily": 8963,
      "Ġplanting": 8964,
      "Ġdrivers": 8965,
      "Ġwatching": 8966,
      "Ġperfectly": 8967,
      "Ġvolcanic": 8968,
      "Back": 8969,
      "RC": 8970,
      "fast": 8971,
      "pass": 8972,
      "world": 8973,
      "inent": 8974,
      "Ġrevers": 8975,
      "igue": 8976,
      "ĠBush": 8977,
      "Ġcanal": 8978,
      "aven": 8979,
      "Ġaccord": 8980,
      "rowth": 8981,
      "Ġrefused": 8982,
      "Ġdefend": 8983,
      "formed": 8984,
      "Ġ800": 8985,
      "Ġ978": 8986,
      "Ġbreaking": 8987,
      "ĠColl": 8988,
      "ĠBlue": 8989,
      "Ġaimed": 8990,
      "Researchers": 8991,
      "iosity": 8992,
      "Ġconverted": 8993,
      "ĠWilson": 8994,
      "Ġsuscept": 8995,
      "App": 8996,
      "Sec": 8997,
      "group": 8998,
      "sub": 8999,
      "Ġinev": 9000,
      "Ġthr": 9001,
      "olk": 9002,
      "eting": 9003,
      "ĠCensus": 9004,
      "Ġasc": 9005,
      "Ġconqu": 9006,
      "ĠRh": 9007,
      "ĠRand": 9008,
      "ĠEmer": 9009,
      "Ġclub": 9010,
      "Ġattributed": 9011,
      "Ġfung": 9012,
      "attered": 9013,
      "Ġanticip": 9014,
      "ĠPlato": 9015,
      "Ġdoctrine": 9016,
      "Ġgeomet": 9017,
      "Ġintroduce": 9018,
      "Ġadopt": 9019,
      "Ġfeedback": 9020,
      "ĠRoad": 9021,
      "ĠBiology": 9022,
      "Ġabundant": 9023,
      "Ġancestors": 9024,
      "ĠIslamic": 9025,
      "ĠCuba": 9026,
      "Ġpuzz": 9027,
      "ĠDamascus": 9028,
      "ĠLewis": 9029,
      "92": 9030,
      "PD": 9031,
      "bel": 9032,
      "foot": 9033,
      "rets": 9034,
      "aton": 9035,
      "Ġmature": 9036,
      "ĠTri": 9037,
      "ĠMax": 9038,
      "ĠHem": 9039,
      "acles": 9040,
      "ĠDie": 9041,
      "roud": 9042,
      "text": 9043,
      "aware": 9044,
      "ĠArts": 9045,
      "Ġaffairs": 9046,
      "Ġexercises": 9047,
      "Ġshallow": 9048,
      "Ġsafely": 9049,
      "Ġlifetime": 9050,
      "Ġcelebrated": 9051,
      "Ġaims": 9052,
      "Ġuniversities": 9053,
      "laration": 9054,
      "Ġregistered": 9055,
      "MI": 9056,
      "era": 9057,
      "Ġbond": 9058,
      "Ġrect": 9059,
      "ĠType": 9060,
      "rared": 9061,
      "ĠMap": 9062,
      "uscript": 9063,
      "essions": 9064,
      "ĠFram": 9065,
      "ptom": 9066,
      "Ġkilling": 9067,
      "Ġdisability": 9068,
      "enda": 9069,
      "Ġperception": 9070,
      "Ġroy": 9071,
      "teb": 9072,
      "Inf": 9073,
      "Ġdefects": 9074,
      "Ġavailability": 9075,
      "Ġproductive": 9076,
      "ĠColon": 9077,
      "ĠText": 9078,
      "Ġswelling": 9079,
      "Ġharder": 9080,
      "2007": 9081,
      "author": 9082,
      "Ġregardless": 9083,
      "Ġembra": 9084,
      "Ġjudgment": 9085,
      "Ġfossils": 9086,
      "Ġfragments": 9087,
      "Ġscheme": 9088,
      "Ġinherit": 9089,
      "Ġjurisd": 9090,
      "mond": 9091,
      "Ġtens": 9092,
      "iner": 9093,
      "ouds": 9094,
      "Ġdairy": 9095,
      "ceeding": 9096,
      "ĠCode": 9097,
      "Ġprocl": 9098,
      "ĠPut": 9099,
      "opathy": 9100,
      "ĠNext": 9101,
      "ĠLittle": 9102,
      "ĠOffic": 9103,
      "Ġprofound": 9104,
      "Ġdevast": 9105,
      "Ġobser": 9106,
      "2005": 9107,
      "apped": 9108,
      "ĠLeon": 9109,
      "Ġtotally": 9110,
      "Ġcouncil": 9111,
      "Ã¡n": 9112,
      "Ġantibiotics": 9113,
      "Ġmerch": 9114,
      "amilton": 9115,
      "Ġsurveys": 9116,
      "ĠSunday": 9117,
      "ipelago": 9118,
      "Just": 9119,
      "Ġpou": 9120,
      "olly": 9121,
      "ĠIowa": 9122,
      "amics": 9123,
      "ĠBa": 9124,
      "ĠBalt": 9125,
      "eller": 9126,
      "ĠâĢ¢": 9127,
      "ailing": 9128,
      "Ġracial": 9129,
      "Ġdifferently": 9130,
      "Ġnamely": 9131,
      "Ġradical": 9132,
      "Ġcalendar": 9133,
      "ĠZeal": 9134,
      "hemistry": 9135,
      "Ġdietary": 9136,
      "Ġsurrounded": 9137,
      "ĠModel": 9138,
      "sembly": 9139,
      "isphere": 9140,
      "Ġcardiovascular": 9141,
      "Ġcontroversial": 9142,
      "++": 9143,
      "OM": 9144,
      "OW": 9145,
      "Rel": 9146,
      "Ġtur": 9147,
      "atoes": 9148,
      "enced": 9149,
      "essee": 9150,
      "ĠTry": 9151,
      "ĠCyp": 9152,
      "istence": 9153,
      "ĠBu": 9154,
      "ĠHam": 9155,
      "Ġvow": 9156,
      "ĠFA": 9157,
      "Ġincent": 9158,
      "Ġscr": 9159,
      "Ġconsent": 9160,
      "Ġtrail": 9161,
      "Ġvisiting": 9162,
      "Ġ95": 9163,
      "develop": 9164,
      "rett": 9165,
      "Ġ1988": 9166,
      "rels": 9167,
      "Ġ1945": 9168,
      "Ġquantity": 9169,
      "Ġtendency": 9170,
      "ĠEconomic": 9171,
      "Ġdistinguished": 9172,
      "ĠWikipedia": 9173,
      "Ġprevalence": 9174,
      "profit": 9175,
      "Orig": 9176,
      "Under": 9177,
      "dis": 9178,
      "first": 9179,
      "Ġcough": 9180,
      "isons": 9181,
      "Ġpine": 9182,
      "Ġpairs": 9183,
      "Ġfought": 9184,
      "rav": 9185,
      "ĠNeg": 9186,
      "Then": 9187,
      "Ġweigh": 9188,
      "agan": 9189,
      "Ġschem": 9190,
      "Ġrecre": 9191,
      "rency": 9192,
      "ĠReal": 9193,
      "Ġstrange": 9194,
      "Ġdescribing": 9195,
      "Ġ1986": 9196,
      "ĠAssess": 9197,
      "Ġcomplexity": 9198,
      "Ġembry": 9199,
      "Ġcontrolling": 9200,
      "ĠEvolution": 9201,
      "Ġmalaria": 9202,
      "Ġmagazine": 9203,
      "Ġpaintings": 9204,
      "Ġdeposits": 9205,
      "Ġpharmac": 9206,
      "Ġlicensed": 9207,
[...]
